.
'
,
i
the
?
to
you
a
it
and
is
s
that
in
t
!
of
for
-
"
on
what
my
have
can
this
me
do
not
but
with
be
##s
are
your
just
so
we
if
m
he
/
no
was
don
get
how
:
there
all
know
like
u
at
re
or
they
##u
about
up
from
as
##nt
##bu
one
##t
out
will
now
when
an
here
)
want
go
think
ll
why
right
did
(
ve
need
install
see
then
she
would
good
well
##o
has
who
;
got
use
any
yes
some
##l
time
by
d
him
should
her
does
them
more
&
work
am
only
his
make
where
##g
back
oh
help
come
had
trump
way
really
too
been
people
going
##d
could
anyone
us
try
yeah
let
new
something
amp
look
##e
still
didn
x
say
doesn
tell
##x
ok
##ing
##h
sure
because
never
take
thanks
were
much
even
over
our
apt
than
##m
man
find
love
its
##p
after
please
##r
using
other
first
mean
hey
which
very
off
into
##er
##a
run
thing
file
down
w
##k
*
problem
sud
sorry
##y
lo
said
won
installed
linux
same
##b
cd
someone
again
day
anything
give
okay
trying
better
before
their
##fi
_
hi
g
windows
n
great
con
l
isn
boot
also
im
last
maybe
gonna
doing
de
gnome
nothing
things
##i
today
these
k
two
system
thank
those
put
home
live
always
little
being
f
r
bad
un
2
##f
open
life
best
working
says
might
##in
thought
package
every
read
ever
check
start
everything
used
guys
running
##c
tried
change
etc
stop
getting
set
name
though
happy
partition
>
files
1
already
kernel
must
another
old
long
show
##ed
wrong
many
most
command
actually
wait
night
##n
fire
keep
di
question
hard
card
made
done
play
years
works
without
fine
may
lot
hello
server
o
big
+
]
ask
nice
gr
feel
[
looking
root
stuff
##w
next
around
real
away
com
talk
probably
through
having
god
since
found
##on
ho
desktop
sound
else
while
shit
call
believe
yet
drive
told
##de
idea
year
everyone
user
bit
both
error
##es
guess
list
ah
free
##ly
##z
pretty
$
da
remember
own
line
version
v
left
hillary
game
enough
guy
place
hd
under
##ia
##0
dev
hope
##2
support
##ub
point
kind
add
log
world
understand
rep
ha
0
##fo
default
##v
such
##ap
money
watch
seems
##wee
fuck
looks
b
video
few
e
mr
type
win
wanted
haven
##st
talking
update
driver
different
network
mount
leave
th
tonight
packages
part
##fs
able
##pper
er
once
called
##ha
terminal
##vid
coming
clinton
end
saying
6
house
friend
kill
##ma
days
5
hear
seen
syn
far
went
##tal
girl
screen
wasn
care
ya
upgrade
10
media
hmm
wouldn
fix
wi
##tic
##gur
happened
true
##zy
via
black
ago
program
course
week
rec
came
saw
sir
morning
makes
bree
y
stay
times
hell
3
friends
##ary
ex
menu
##3
family
drivers
uh
download
obama
either
whole
hate
easy
until
heard
pro
anyway
reason
ed
myself
mind
job
%
li
miss
computer
problems
possible
least
remove
move
cool
##bian
=
c
eyes
president
person
dead
source
wanna
white
##oo
yourself
face
tomorrow
listen
##gy
exactly
cause
case
making
installing
lost
father
mother
ee
couldn
el
dad
#
instead
mom
box
news
woman
head
means
needs
school
machine
manager
write
4
war
laptop
damn
soon
ur
thinking
full
wants
women
app
access
fucking
matter
wine
took
aren
fun
three
ip
knows
second
password
together
each
men
st
against
between
seem
team
car
h
answer
p
wish
turn
paste
ready
gets
birthday
wow
hit
room
##6
em
id
top
asked
sounds
happen
whatever
ass
pay
cannot
sc
issue
worked
boy
election
sources
son
##4
gt
pc
##ro
send
story
hold
anybody
mode
plug
gone
##us
mp
##1
##os
started
usb
mine
twitter
comes
na
google
os
search
party
power
bring
build
ss
##to
baby
donald
wireless
pp
nt
phone
post
knew
gave
gotta
link
option
word
quite
close
goes
click
##ki
vote
asking
su
hours
auto
code
hand
##gl
playing
##boot
um
buy
almost
window
anymore
device
red
ga
ku
disk
##ts
sm
pre
later
directory
music
watching
brother
##q
crazy
america
country
mo
high
minutes
dr
ad
during
less
##dis
thanksgiving
stupid
save
fa
taking
follow
weird
beautiful
ms
^
huh
web
bug
chance
kids
folder
internet
forget
alone
shouldn
killed
late
java
heart
happens
business
fact
die
message
page
wife
safe
ideas
##ct
##ty
edit
cr
deal
moment
eat
police
side
sometimes
meet
<
##layer
key
##ie
ones
reins
state
##rs
hot
del
local
dvd
software
gui
trouble
dude
##ins
##it
break
share
half
co
order
##nce
rest
correct
number
available
per
player
games
##ver
shows
text
book
important
supposed
sleep
##con
release
amazing
shut
setup
ni
past
rather
ain
##ot
connect
cu
normal
channel
pass
create
ye
questions
sad
script
eerie
space
info
funny
death
route
tho
##able
pick
data
es
load
water
changed
et
luck
flash
##dm
##mm
agree
worry
young
nobody
iso
##ns
burn
fight
stand
tv
others
##pi
pl
front
waiting
control
##osi
universe
copy
non
perhaps
finally
city
##ers
figure
inside
##ne
##5
movie
mad
##le
months
##mo
behind
learn
permission
unless
american
##name
res
somebody
office
##em
needed
ra
couple
missing
##ting
nope
br
gi
telling
##re
issues
quick
security
bitch
small
##pl
##ware
broken
debate
##pile
mac
group
food
##bs
##cs
truth
shot
sick
##sta
speak
yesterday
cut
girls
connection
wonder
worth
users
special
##box
om
based
##cha
al
kid
q
slow
sense
choose
takes
client
pm
sit
lose
en
seeing
single
##ch
image
somewhere
switch
serious
hardware
ny
installation
hurt
##ve
sort
test
la
site
trust
j
class
fast
simple
hands
excuse
usually
als
##pe
uses
ram
season
settings
super
short
fan
yep
become
alt
favorite
drink
child
hour
glad
ir
mp3
restart
bc
reading
bro
apps
##est
account
starting
##me
awesome
##te
words
##uti
##mp
met
yu
dear
##hh
clear
format
welcome
~
plan
interesting
press
bin
minute
gives
ran
net
##he
rt
body
##zi
feeling
ch
bar
process
##32
##ter
output
latest
##im
yo
sent
giving
64
console
literally
meant
outside
afraid
weeks
##tem
difference
fat
depends
8
##et
se
forward
##en
step
errors
bed
##min
alright
except
perfect
##lus
looked
hr
ko
hair
everybody
ma
completely
programs
org
ins
apple
##ta
clean
##ted
vi
##ic
children
cat
port
campaign
seriously
sd
bet
address
month
low
future
cl
yours
options
public
walk
7
##up
join
monitor
report
gen
early
##cd
##ge
##ks
dog
##ce
apache
blue
##ies
module
##7
died
##ng
ac
longer
lots
##bin
ps
light
song
choice
##8
door
bash
iv
enable
along
##gh
sister
definitely
##se
mouse
mail
totally
entire
ill
law
tar
poor
multi
##ete
college
bt
hang
nyc
##tori
##lla
none
ct
dinner
main
##nc
history
wondering
email
general
date
mu
##man
lie
sub
cache
doctor
given
po
sex
daughter
setting
touch
gun
##sty
##ain
##wr
crap
##sp
drop
strange
imagine
pic
calling
current
##ga
##rl
specific
however
weekend
straight
five
living
mounted
##al
fake
lady
##sh
human
beat
path
town
worse
modules
gp
sweet
php
audio
easier
##app
husband
ka
fei
##ble
example
ce
four
company
york
kinda
blood
##j
information
panel
forgot
sh
eh
taken
brought
act
coffee
resolution
known
ft
memory
ahead
sy
anti
bio
worst
following
sign
parents
enjoy
swap
tool
smart
xi
##ll
var
shall
##an
lt
bo
lives
whether
service
self
million
vs
website
ge
leaving
missed
failed
##64
##ss
stick
loved
manually
folks
picture
recommend
dh
##ize
##ps
dumb
john
fall
##rc
sun
catch
happening
piece
enter
sec
cute
runs
dream
hasn
absolutely
extra
currently
himself
allow
bought
view
married
turned
thinks
friday
font
certain
cards
huge
cold
evidence
bill
cpu
evil
often
honestly
##itude
##is
likely
mess
##or
tax
final
##bot
fans
till
basically
display
master
boys
##ist
dual
sat
##ug
force
##lo
excited
air
apparently
af
jack
##ount
enabled
fair
throw
##ee
major
updates
return
##op
20
played
automatically
repository
stable
paid
terrible
samba
##cc
keyboard
personal
accept
##yst
tells
##less
##ling
record
starts
supported
ab
prefer
##rom
scared
busy
keeps
pipe
intel
alive
mod
##ke
pain
##na
##pa
strong
##time
mis
lines
art
states
downloaded
level
##th
nah
middle
tired
min
##si
z
trash
itself
star
street
##fa
due
applications
broke
eye
doubt
##ck
checked
##mb
felt
especially
button
near
sp
speed
fr
suppose
pull
writing
store
drives
respect
ta
suggest
built
##ni
exist
backup
online
feels
##be
session
##com
stuck
def
ii
photo
mrs
handle
nick
9
fresh
##ry
##ser
changes
lord
americans
##ora
application
lucky
100
browser
forever
attack
editor
building
##ryl
wall
meeting
results
bunch
official
language
proud
complete
`
shoot
russia
ty
faster
moving
shell
##tar
similar
promise
stopped
mb
##ness
##sa
tab
guide
host
anywhere
depend
select
added
##el
##fc
chat
private
##verse
wonderful
dem
earth
lying
actual
fixed
##ff
icon
##11
earlier
interested
##gga
fault
##ful
dir
secret
joke
pe
born
ar
realize
lock
pop
##ci
lead
calls
finished
common
listening
sky
essential
christmas
##tf
spent
otherwise
printer
interface
##load
##ion
screens
##lc
##cp
tools
boss
area
created
jesus
##code
##bit
properly
thankful
##ac
size
simply
rid
decided
theme
##ec
sucks
##gb
spend
within
le
32
ne
across
##ft
fl
birth
wake
social
##co
voice
##as
racist
cover
base
trip
wear
names
attention
preferences
##9
##led
ap
06
sl
king
configuration
ice
updated
##pro
##bar
doc
##wall
standard
##no
train
english
bye
age
appreciate
project
double
gay
ship
six
advice
ways
fed
##ive
kept
##rt
connected
photos
wrote
##pp
illegal
plus
released
messages
wa
breaking
neither
finish
##86
several
ref
##ba
pen
honey
sunday
somehow
table
hurry
national
##ls
weren
changing
showing
green
tough
whoa
points
15
startup
##ol
pi
quit
##ok
##00
##sable
idiot
dark
fear
road
sell
obviously
solution
assume
dunn
##nd
odd
total
sitting
easily
film
places
te
lil
gs
killing
situation
mistake
30
bag
core
putting
count
##tor
##do
fell
note
political
volume
visit
rock
worried
court
##ud
although
supporters
government
murder
uncle
continue
san
taxes
lets
ball
caught
article
##la
land
block
##arte
xu
evening
correctly
dangerous
difficult
restricted
mark
angry
deep
model
hm
wearing
above
third
loaded
##out
bot
west
captain
blame
administration
ten
ping
aw
match
rules
##di
##wd
protect
opinion
sf
careful
ba
removed
brain
movies
spot
written
shame
speech
seconds
watched
##po
##dit
##su
ro
speaking
12
##gs
eating
empty
inc
thoughts
holy
indeed
##down
\
mouth
graphics
##go
community
tb
truly
certainly
header
older
chips
original
quiet
hoping
comment
race
recently
millions
du
bus
board
##per
11
##a1
##yp
ds
##da
##og
large
peace
gotten
ca
tr
offer
confused
mention
tom
raid
term
##tream
leg
ben
##rat
regular
related
tu
sam
besides
checking
ban
##at
fit
fi
onto
upgraded
monday
##ur
launch
www
flux
popular
bottom
lu
honest
saved
##mes
remote
notice
helping
##ism
print
rich
drunk
dick
hospital
clue
##mat
mike
##ent
allowed
noticed
director
disc
losing
series
statement
ut
followed
paper
event
04
commands
mc
cry
##ra
health
liked
swear
consider
field
flight
##ka
books
impossible
closed
lies
joe
curious
section
boo
jobs
direct
opens
voted
instructions
md
whenever
round
clearly
servers
freeze
3d
multiple
##oh
possibly
##ut
##am
nor
##ep
ugly
##aa
figured
fool
park
links
bomb
ke
bother
##sc
una
##lea
ride
magic
entry
suggestions
prompt
candidate
annoying
decide
grab
bi
cong
##mi
##ms
beta
av
dance
episode
surprised
including
##ports
dial
soul
boots
charge
chris
color
players
winning
hotel
response
voting
##mount
contact
##rd
character
##end
voters
football
russian
loss
twice
useful
present
fighting
learned
binary
details
##ix
form
external
mostly
kn
moved
python
club
imp
upset
camera
price
calm
topic
##il
fox
daddy
themselves
biggest
ff
##ho
shop
##tion
policy
helped
##ity
burning
##ob
clock
position
cost
wild
performance
stage
facts
snap
basic
quickly
dan
crying
tea
sa
exact
alternate
gold
lovely
awful
loves
paying
devices
##ged
##io
crime
appear
familiar
##ros
lunch
##id
track
keys
ki
according
named
ie
push
##off
nu
rd
laugh
meta
hide
lit
saturday
fails
##ai
beyond
ignore
prove
##ice
##lan
cable
##cl
rip
blank
directly
presidential
begin
pot
surprise
silly
paul
legal
poll
letter
finding
david
cop
beer
loading
sw
wire
stories
##ad
tree
asks
##ar
ag
sharing
suck
fe
driving
bernie
wo
replace
random
album
profile
horrible
##um
##ze
fly
necessary
hat
rights
cha
deserve
ja
ti
zero
beginning
##ess
cds
unfortunately
appears
willing
pa
ai
involved
chief
talked
michael
op
action
standing
feet
higher
suspect
interview
fu
likes
politics
blow
##ging
decision
brown
south
rm
rn
machines
bu
des
compiling
claim
ladies
wedding
dying
thread
##der
##py
development
##oc
##ine
pictures
##cr
##ment
systems
waste
mn
forums
station
walking
forgive
immediately
hall
amar
further
relationship
##rent
##encies
opening
##by
avoid
##fu
kidding
lin
tech
##ops
evolution
spa
judge
clothes
proper
turns
sea
location
plays
##play
numbers
soo
rpm
cash
proof
##ger
##age
castro
normally
listed
wind
brand
##pad
##ri
custom
supports
hu
aware
fbi
videos
knowing
buddy
learning
mel
bob
##ds
personally
scene
center
##ti
services
50
gift
reasons
##wi
wins
00
bigger
mentioned
##cut
interfaces
california
mor
max
george
grow
##ber
floppy
mirror
versions
claims
mi
emails
keeping
james
convert
conversation
defense
upon
ground
va
result
000
false
upgrading
##rea
nasty
##tp
aa
liberal
pu
##mme
##ay
honor
jo
ridiculous
##table
graphical
interest
sold
perfectly
kick
boyfriend
fired
radio
risk
##ys
cnn
include
floor
virtual
accident
rate
solve
ring
##line
bout
recovery
everywhere
au
teach
par
archive
stream
##rr
umm
fraud
crash
hopefully
messed
market
afternoon
drinking
##hot
fires
particular
environment
##bo
##ial
adding
##all
plans
fail
shared
torre
background
##ate
votes
jail
marriage
dec
##ass
thru
##vo
investigation
nearly
##shi
unable
cp
jr
lived
##dy
helps
reality
holding
gb
songs
admit
muslim
testing
trade
ob
research
excellent
tickets
##ya
##pace
bank
ph
north
##unt
quality
bullshit
fucked
officer
compiled
mate
cross
dress
comments
sr
##free
dc
passed
splash
recognize
frank
rain
justice
former
fish
daily
argument
reach
rule
azure
si
hearing
##tt
ri
dare
picked
destroy
girlfriend
goal
pr
east
style
##10
goodbye
summer
kiss
october
apologize
##net
configured
suddenly
unstable
holiday
plane
focus
native
putin
usa
deleted
##drive
pizza
feature
showed
##omp
screw
icons
locked
sha
career
je
mk
mon
##eg
cup
trick
iphone
agent
stein
prison
decent
np
jump
knowledge
roll
teacher
teams
dirty
freedom
primary
##her
recent
asshole
shirt
turkey
posted
lack
patch
disabled
ep
amount
warning
gu
##gg
matters
planning
mounting
snow
credit
leader
##bie
cops
aunt
marry
cc
army
weak
sessions
sending
queen
tour
library
mm
skin
plenty
networking
value
screwed
assuming
joy
target
buying
tri
travel
students
meaning
dropped
cheap
bee
##uid
insane
seat
apart
acting
##des
##ea
violence
pages
arm
##ib
lower
##ner
typing
rev
success
darling
##ation
##board
pack
bringing
church
sing
manual
int
##ized
grand
weather
foot
##ab
whose
gas
carry
agreed
opened
greatest
##list
chicken
fill
separate
island
smile
smell
band
detect
smoke
sexual
bs
ci
realized
rape
purpose
hero
study
##li
congratulations
##city
alternative
heads
bay
answers
effect
acc
sleeping
feed
cheese
alex
rose
returns
##wire
feelings
hungry
tape
rap
editing
provide
staff
##pd
drag
among
dreams
computers
dd
reply
lan
turning
design
brows
pee
nation
ipod
voter
letting
reset
##lu
##ker
status
##resh
powerful
foundation
camp
ethernet
##ny
##ping
traffic
became
incredible
fantastic
van
theory
united
dig
battle
treat
moon
tower
##fr
ended
criminal
pan
dump
chi
reports
apartment
128
vo
title
newer
warm
ju
taste
##top
education
pal
ts
lately
league
goo
med
ordered
##uh
mum
considering
obvious
kelly
sake
chill
cal
logo
horse
irs
facebook
tight
bear
dogs
chip
staying
ryan
mary
managed
killer
opera
held
sync
manage
fully
repeat
##we
gentlemen
scary
ends
jill
##ons
forced
##rim
rei
##card
breakfast
explain
cheers
student
favor
period
lied
christ
cases
guns
request
pri
##yn
gnu
##hi
victim
ticket
backs
##day
groups
##qui
seemed
kim
content
##nk
generally
shoes
##du
dollars
shooting
40
practice
enemy
og
republicans
##res
foreign
ate
rom
faith
trans
active
complain
16
##aver
##ey
alien
french
ports
map
cell
nuts
hack
lawyer
smith
##sy
liar
loads
badly
hanging
secretary
democrats
input
##ick
usual
themes
military
wanting
required
##gi
youtube
##ah
##force
guilty
discuss
corner
ea
elect
disgusting
airport
previous
matt
uk
laughing
##ak
shout
68
tt
##ip
##sm
science
energy
owner
method
task
##ux
miles
che
mt
crashes
##ish
bush
##od
flat
chose
tune
ghost
rs
included
raise
planet
##izing
##ler
thunder
halloween
attacks
disagree
shi
stock
corrupt
removing
##ml
relax
beats
heavy
culture
coach
democracy
towards
stops
cups
##au
parts
searching
seven
images
washington
london
rhythm
steal
atm
monkey
closer
##so
wise
##sl
##pt
tries
troll
blocked
effort
muslims
role
member
guest
beauty
progress
cares
##oe
require
concerned
bugs
bless
hidden
professor
sar
stone
##ant
phones
tap
tutor
specifically
hole
hadn
responsible
##ca
laws
hill
##fl
friendly
##cted
38
##wc
extremely
gig
boat
attempt
##lly
##hos
milo
scan
escape
##que
florida
blind
bastard
mama
selling
useless
broad
cook
walked
expect
tip
lee
everyday
requires
tim
woke
bloody
asleep
spread
rc
mmm
logged
##pack
sale
female
##cu
flag
tel
harder
##page
jim
pure
challenge
##bird
glass
eli
planned
firm
defend
recall
exists
loud
suit
cast
apply
nfl
##ld
movement
hiding
opportunity
herself
##book
respond
##fe
dj
##ore
##ko
execute
sees
##ami
received
harry
beach
innocent
##uf
loving
pants
dos
bottle
crack
wr
loop
pulled
pray
mission
shift
management
positive
sports
peter
cream
electoral
talks
dell
reporting
static
celebrate
ou
spec
charlie
f1
lame
pin
##ous
leaves
serve
##38
transfer
solid
ohio
village
secure
steps
sanders
followers
##port
80
draw
spirit
hum
drugs
boring
jimmy
##par
detected
blah
pie
processor
17
cousin
crowd
helpful
mass
paris
rescue
##les
properties
pleasure
##ow
mono
##get
podcast
clients
##key
lists
stars
global
considered
shopping
rigged
whoever
tag
wide
##tu
brings
tiny
despite
bum
promised
officially
exit
barely
cap
mic
slack
sep
uber
butt
bridge
generic
characters
pathetic
##ink
islam
features
surely
lights
##xx
purge
direction
romney
split
desk
##lin
product
nat
members
pretend
##rar
##red
kitchen
chinese
understood
##ding
internal
102
compiler
##va
ic
tony
cow
battery
medical
review
denied
clown
##tra
eventually
steve
monster
sid
##ig
hangs
dl
disks
damage
phil
threat
##ev
failing
mid
partner
foo
owe
massive
opt
highly
ot
rally
##vd
signed
patient
soft
restore
republican
artist
milk
##back
pat
##ue
terms
##xin
cm
liberals
ud
march
weight
guessing
##ou
caused
##ex
drake
hp
male
orders
hardly
grateful
sis
##ject
##om
scroll
families
extension
##ite
panic
##ile
##bc
##gate
stole
nano
meat
fellow
creating
troubles
ui
scripts
bathroom
logs
specify
flying
brilliant
truck
afford
cs
polls
##bi
finds
##un
mobile
arrest
hurts
pregnant
cars
jewish
mini
demand
giants
bra
jealous
bull
burned
grandma
forum
18
score
##lib
pressure
extract
bird
##ron
edge
##ru
##ded
thursday
records
wash
##ier
growing
allows
adapt
mer
piss
schedule
assault
##sum
easiest
nervous
cam
##men
genius
ind
mental
onboard
freak
fairly
arms
heck
heading
garbage
ann
brothers
##han
##hat
##ring
heaven
dar
taught
sb
spoke
nose
awake
forgotten
terrorism
##mer
##ley
remind
platform
##ana
physical
##ound
function
conspiracy
recommended
threw
whom
destroyed
detective
duty
entirely
##ball
eight
guard
arrived
##ame
quote
sites
qb
mas
becomes
thousands
breaks
##ient
failure
echo
ev
existing
strength
##ton
bored
conference
beg
##ul
events
row
woo
heat
scott
texas
training
society
nic
complicated
##ju
lay
pet
sweden
cake
nonsense
##ror
isis
##for
##ph
comfortable
regret
university
limited
25
led
healthy
blog
##wn
24
supporting
##cam
##ja
mar
fide
ties
racism
bell
safety
potential
jeff
slowly
falling
suggested
hitting
tips
reported
##utable
switched
@
200
china
##ash
michelle
skip
terror
gov
lieutenant
inter
##ask
restaurant
billy
winter
compared
department
harm
lazy
ji
tears
river
ray
trial
writer
##mt
drug
dies
illegally
neck
devil
mayor
instance
cuban
oil
pissed
60
spin
slave
effects
arrested
refuse
xx
ios
remain
##vi
daemon
nowhere
hook
libraries
ability
jones
signal
winner
immigration
mit
fancy
plain
za
##llo
tie
aside
victory
##ally
november
vp
exciting
christian
breath
baseball
federal
##tv
##ht
babe
pieces
stress
tuesday
mob
legs
sarah
hits
##ors
##wl
eu
til
survive
bel
##cor
nature
##ku
chow
april
discussion
mood
##che
nine
hates
frame
owned
preview
orange
famous
egg
smaller
nm
rude
crew
candy
behavior
natural
crashed
documentation
tc
loose
advantage
pair
prepared
thousand
brave
##ky
ol
mix
eric
chicago
canada
##ped
congress
terrorist
cuba
reform
##ew
##gr
##nts
ren
reminder
zone
register
##fat
subject
proxy
##kin
angel
grace
aye
israel
hash
saving
ing
automatic
##ian
controller
elected
robert
attacked
picking
##eti
##sr
dvds
danger
##tin
yi
define
ali
operation
valid
square
##mc
spare
professional
jan
prime
papers
puts
negative
ought
scratch
modern
shock
sho
companies
schools
grown
col
animal
balls
une
successful
suggestion
ru
lou
math
locate
gateway
microsoft
humans
border
hundred
unix
victims
ourselves
prepare
gang
jersey
typed
silence
newest
stayed
##mas
##ists
##sb
dry
wing
edition
hal
crooked
rush
##jo
flood
murdered
german
covered
14
legacy
unknown
below
rent
choices
ads
##hd
suicide
gorgeous
##dating
knock
giant
understanding
minds
spending
weapon
emergency
throwing
notes
prof
regarding
chair
letters
jews
billion
alert
dish
gym
##anne
shower
henry
##ars
referring
insert
bowl
shots
spell
responsibility
connecting
ending
boxes
noon
##hing
jason
countries
##ome
cv
candidates
hosts
db
corn
answered
returned
receive
appropriate
bright
ear
context
luke
reference
buttons
pdf
rat
##user
kicked
classic
pool
recover
weapons
nights
und
13
fantasy
average
stolen
filled
princess
switching
notification
becoming
tin
prior
noise
rough
abuse
invite
wednesday
connections
digital
commander
engine
wet
##hop
johnson
coast
confirm
##bly
modify
500
##head
##kle
regardless
developer
debt
adam
bb
##smo
offense
disappointed
jokes
storage
actions
##ina
##nx
outta
il
192
tha
##tag
prevent
accounts
license
finger
##ook
##ag
amazon
developers
witness
raised
##wa
limit
database
causing
##ated
enjoying
##gt
cancer
central
sin
compare
bat
##ire
knife
##ez
spanish
grade
invited
##rm
india
##oy
joined
shadow
belong
##ham
##ama
sand
shitty
ow
chocolate
##dra
##you
##pre
protest
rise
lesson
spring
presidency
gm
hood
talent
richard
shown
jam
sum
bike
europe
immigrants
contents
nj
grew
japanese
##ito
usage
hated
breathe
cancel
corruption
##king
zip
goddamn
accuse
opposite
international
raw
storm
chu
ton
suspend
jane
kevin
witch
vacation
jerk
fingers
sue
##cker
##lp
registered
rocks
pussy
wu
pardon
porn
shape
streets
range
resources
deserves
exchange
argue
relevant
sudden
babies
discovered
francisco
initial
complaining
happiness
sexy
##thi
chelsea
singing
accepted
scale
dia
leads
ruined
bath
rare
string
toast
santa
leaders
vegas
selected
supporter
syntax
equivalent
refused
dating
##hl
teeth
##write
char
commercial
compatible
enjoyed
perform
slightly
concern
memories
delicious
increase
thus
madam
moments
adult
graphic
sen
insurance
networks
sv
impressed
confusing
convinced
ignorant
majority
##one
##ster
moves
##my
horror
bias
contract
reminds
civil
union
##ise
accidentally
coverage
cities
climate
blessed
located
vet
gain
##af
counter
constantly
netflix
##cting
amy
##ming
cab
democratic
bread
justin
rob
800
##if
hacked
##tagram
dependency
demo
hung
mexico
##imi
approach
posts
eclipse
drinks
printing
pink
##ify
dealing
dancing
channels
closing
sean
den
gee
ze
pocket
faces
surgery
##erate
addition
benefit
nut
##point
martin
loser
##tooth
hire
powers
##ji
danny
releases
josh
##bl
##ulia
describe
##bling
##press
complex
qui
##za
sometime
sets
##grade
critical
pig
passing
##ens
concert
disaster
brooklyn
advanced
prep
colors
layout
##tium
html
thomas
blocks
##son
midnight
committed
roger
dressed
http
kate
reaction
##way
programming
lime
screaming
sk
##ir
sugar
##of
hilarious
silent
##cal
headed
sigh
animals
twin
shake
gross
incident
parties
lap
22
bf
juice
strike
religion
nc
types
wheel
tan
aka
nap
intelligence
chan
workers
checks
logical
african
myth
##care
shares
lab
therefore
provided
colonel
blast
ups
lamp
##the
customer
sides
ec
cheat
jets
miami
various
logging
fashion
sentence
shu
deny
bon
minimal
sight
ruin
##tri
smooth
##ica
flowers
capable
prince
studio
messing
##kes
##ces
streaming
##art
##12
ao
stands
desperate
asa
distribution
wit
tied
cooking
makeup
appreciated
vista
ages
younger
tons
sadly
rendering
han
eve
reporter
accused
slower
##ating
reg
definition
##sing
conservative
nightmare
tail
300
pit
sales
scare
##lock
meal
economy
serial
mommy
cy
cf
collection
bombs
chuck
resolve
##tr
wars
contains
##vs
restarted
slept
recognized
wave
senior
virus
conflict
stays
audience
trend
##ple
funeral
sur
##pc
fixing
grandpa
crisis
johnny
bench
ken
##non
grey
prop
pun
alarm
nuclear
column
industry
operating
tear
fetch
refuses
pushing
equal
struggle
deliver
import
abortion
##ule
##vers
paint
bars
clicking
168
##ide
chances
believed
disappeared
stronger
##our
crashing
##eit
tend
citizens
recording
parent
acceleration
jake
coward
property
convince
##pon
##pr
thin
freaking
designed
tor
speakers
alternatives
##form
##chi
virginia
##pping
silver
##ast
strategy
##hit
gma
mall
iron
idiots
reached
mat
detail
spy
dropping
crimes
##lat
charity
trap
linked
offered
absolute
##tes
concept
##wo
utility
pushed
includes
signs
##well
announce
##ost
religious
ham
##hum
touched
##lia
nets
domain
##mail
##lev
confirmed
sweetheart
jay
wrap
successfully
##how
fc
mountain
commit
##dd
grave
hub
cent
semi
##rso
leading
conway
1000
pol
jacket
ala
##ei
replaced
income
advance
garden
bullet
costs
ops
##view
views
reasonable
emotional
##mbo
bone
nazi
bea
##yi
monitors
charges
mixed
brian
kit
disco
skills
depending
anna
##tte
condition
incredibly
treated
county
wallace
believes
bite
ted
gate
bud
protection
advise
clip
butter
rub
forces
cats
individual
michigan
values
bodies
##bla
continues
creative
pumpkin
acts
maintain
hitler
##away
posting
nl
daniel
fate
yellow
naked
wishing
neighborhood
##screen
woods
refugees
stopping
loses
##pers
entries
ivan
waited
##use
##mac
wipe
oct
joking
soldiers
goals
frost
affect
deals
ib
sooner
goodness
customers
hug
officials
production
##pm
##ffer
beast
possibility
worries
searched
afterwards
item
impact
##nate
wood
refer
pulling
fra
##azi
settle
ashamed
journey
dave
gary
december
##ype
embarrassing
##bf
joining
unit
logic
elections
fund
rig
##uc
flip
wired
ears
##gle
tx
ia
accurate
aim
hint
lake
punch
notebook
visual
knee
sneak
policies
indian
nicely
bills
##ws
documents
reader
lonely
japan
hip
sq
investigate
anger
warrant
chain
manhattan
processes
##pin
##ris
##light
fought
hence
wishes
hunt
tommy
upstairs
##pen
soup
invalid
resolutions
##ard
##ini
mexican
repair
donate
proprietary
##ont
jackson
lift
yard
meg
stink
british
spoil
solved
glasses
golden
qu
kills
hundreds
mistakes
patience
terrorists
##gin
suffer
valley
##mon
somewhat
##ii
pod
##nn
##oz
##gre
inspector
officers
cho
insult
belongs
adjust
ste
##rg
junk
jar
##dev
##ange
draft
opinions
youth
beating
drama
protocol
degree
percent
stomach
purchase
edited
##ves
##zed
capture
##ell
apology
upgrades
revenge
##log
cage
##ress
##ock
exclusive
guarantee
kinds
##tro
archives
chop
frozen
eddie
creepy
itunes
sergeant
handsome
deco
era
listened
medicine
ours
capital
##rated
defending
anytime
injured
attitude
##rou
##ten
sacred
gin
##lay
mari
handy
democrat
disappear
bun
treatment
toilet
technology
##vin
##60
tank
wan
agenda
det
roof
hop
cure
gods
rice
##eri
bucks
trace
##over
alcohol
##rri
reverse
bog
speaker
xbox
millennia
##ains
##rb
##ino
sword
forth
govt
parking
launcher
doors
shocked
activate
crush
smoking
chase
award
designer
wat
nov
awkward
france
ami
prize
levels
identity
identify
##mana
rates
mixer
256
##sit
pac
soldier
##sion
squad
##land
yahoo
highest
alias
##ool
rudy
guests
spit
technically
debates
minister
sal
offers
##zing
speaks
charles
object
extended
##house
painful
sim
celebrating
##zz
clever
boom
sheriff
io
ratings
mag
golf
talented
arguing
delay
projects
mill
sauce
pt
actor
scream
document
para
spoken
##tly
unlike
employees
typical
impressive
mal
stealing
ry
lcd
whore
necessarily
enemies
21
theater
begins
sweat
tested
circle
ant
hired
stranger
doctors
##tch
picks
description
##amp
drawing
bang
assistant
papa
sweetie
sisters
##ions
swing
cycle
##ization
calendar
entered
served
attorney
##ving
##ram
dragon
minimum
mask
ocean
##los
mile
wherever
cleaning
defeat
items
##nu
doo
mets
android
suffering
##iest
plant
bobby
influence
##rite
blocking
remembered
vice
##43
balance
maria
bible
friendship
obsessed
td
vision
decisions
thumb
violent
teaching
##ect
jp
rage
analysis
##gger
economic
##gling
bits
copied
nintendo
bleeding
shoe
larry
material
##pet
stu
generation
proven
##80
##orum
fruit
slide
tall
sensitive
supreme
##ert
throat
scar
pitch
oakland
randomly
##car
dun
opposed
pointing
##eb
owns
answering
plate
june
##esh
tam
##dr
africa
##xi
dot
duck
counting
blew
citizen
extreme
ignoring
england
arch
##vn
##lt
##int
desire
buried
lane
##ssi
grant
attached
75
favourite
##ably
downloads
ron
toy
hearts
moral
blacks
riding
delivery
##ils
##lli
##tions
additional
##nne
italian
ignored
particularly
burger
carefully
greeting
thrown
ancient
dylan
threats
emma
activity
films
##yl
arts
dollar
smells
charlotte
author
homework
##ght
trailer
multimedia
experience
earn
sharp
##rk
meanwhile
castle
reads
reporters
politicians
##tre
russians
todd
causes
mentions
pleased
nurse
introduce
##ning
goin
drove
ambassador
mirrors
gender
xl
cutting
curse
holds
cyber
##ong
##pis
ruby
chosen
beef
erase
##cing
decades
tracks
flu
profit
buck
awhile
##yo
belt
inform
eggs
kin
iraq
inspired
farm
admitted
andrew
century
syria
anniversary
overall
offensive
extensions
##cy
pride
courage
determine
basement
stood
backed
##fish
responding
undo
stores
##rts
headache
##den
charged
lover
##ria
boston
germany
ama
tray
falls
az
punk
deeply
##mind
resume
##real
##tti
disgrace
cabinet
fm
integrated
fore
cried
visiting
campus
seek
painting
houses
classes
cheating
##ern
##urs
jd
kb
someday
poison
warn
##sti
sol
episodes
charm
##ance
verify
que
##mie
homeless
supply
gaming
forest
bow
##fer
ana
products
andy
2nd
independent
improve
hacking
77
##22
quarter
quotes
assist
chest
subway
confidence
impression
##ible
##ani
landslide
remains
minor
toward
##hr
est
banned
larger
previously
der
messenger
romantic
attend
##lica
filter
remotely
resource
weed
##ord
pity
collect
jet
cia
began
##uri
##hu
thou
stan
##ious
##ved
##not
##set
##mark
injury
queens
alpha
wolf
greater
bind
pays
demon
precious
##boy
wasting
##cast
fatal
##hoot
shin
guts
##ven
competition
holidays
drops
carl
jerry
slip
distance
##lab
writes
##ack
divorce
frustrating
honored
savage
##dc
intelligent
bombing
elsewhere
##urse
##aries
buffer
presence
contain
louis
cock
bust
basketball
replacement
512
safely
progressive
horses
bound
trusted
council
dean
humanity
vibe
##sha
neat
##lit
birds
coat
##und
unique
##hn
senate
dt
tongue
cheer
##ulator
##ition
highlight
arrow
dust
carter
jury
fur
mainly
broadcast
differently
dictator
##tat
640
loyal
##med
##ction
logan
rolling
simon
magical
stored
effective
dose
##pu
19
##bb
reveal
scandal
dislike
##ena
vin
leak
peaceful
ceo
##paper
##work
magazine
petty
dil
ld
lips
km
ave
warriors
mounts
aaa
mister
facing
childhood
doe
##oj
chick
laid
unbelievable
robot
couch
thief
murderer
##nut
jordan
wondered
##ole
sandwich
formats
leo
tests
ideal
marks
develop
contest
##nes
announced
raped
mercy
aid
unlikely
vc
protecting
freezing
protected
steam
ski
offended
##sin
pops
behave
##ort
recommendations
doin
plot
psycho
passion
sane
traitor
numerous
##kr
##ran
staring
burnt
##vert
compliment
hara
wisconsin
##tics
ibm
roommate
festival
mesa
labor
announcement
budget
variable
##cit
tapped
drew
##sel
alice
##ace
strip
novel
asian
immediate
tone
caps
nba
pokemon
matches
##tan
##zo
tattoo
agency
rooms
##ulation
brains
seats
##bm
mv
##can
copying
comfort
visited
batman
goodnight
locks
##ries
##phi
coma
elite
##word
##rac
ink
pilot
steel
hollywood
cruel
outfit
suggesting
dna
tick
rick
australia
gates
incorrect
tn
integrity
laura
preferred
##gan
##gen
disease
destiny
serving
microphone
carrying
appointment
armed
##sed
##cat
hen
kicks
##24
##met
scanner
palm
ky
legend
##link
emily
envy
snake
pete
flower
trigger
lifetime
##ral
covering
grandmother
iran
branch
doom
##bn
nominee
crossed
##sen
hurting
mystery
wings
television
##phone
cubs
basis
##gn
rarely
perspective
addresses
pretending
costume
##ree
dates
taylor
##istic
##ita
##zer
mil
hyper
barack
##ima
micro
rachel
prints
400
pressing
yards
##gging
constitution
gut
secrets
bloom
cuts
gentleman
neo
##tec
##iti
##lar
shine
fortune
engaged
upper
september
accepting
nazis
sink
criminals
bedroom
tunnel
western
concerns
bart
##iss
taxi
christie
dock
christians
liking
choosing
architecture
duo
##hy
badger
salt
territory
factory
##now
islamic
##ari
publicly
##tation
playback
crossover
##cies
fred
##ffe
##ox
##pic
anxiety
##pass
##olo
rf
1st
quake
propaganda
pointer
growth
tak
threatened
##rate
aj
##bat
##vu
struggling
presidents
##har
dawn
standards
assumed
intend
borrow
studying
elizabeth
receiving
suggests
##rn
praise
gal
epic
pg
hs
patients
##ik
treasure
arguments
efforts
shoulder
vis
thor
##fy
governor
##kk
benefits
embarrassed
sacrifice
##17
filed
journalist
sport
##las
attempting
##watch
patches
narrative
xv
lawyers
corporate
urgent
yelling
##don
##ched
coincidence
inn
walls
offering
dirt
smarter
physically
authority
permanent
wound
journalists
provides
##ign
##rag
trail
##umb
reward
prayers
##yu
sends
legitimate
bid
ng
kanye
gear
organization
cart
blown
victor
hooked
mcc
promises
##cho
marketing
##ats
##put
funding
amendment
colour
##hand
circumstances
##cre
priority
miller
leadership
lsu
encryption
los
affair
grandfather
estate
walks
placed
api
bail
eaten
empire
jessica
##ows
focused
dozen
##bles
gigs
feedback
alan
##ade
jean
scenes
arrive
homes
damned
passes
ul
writers
wee
financial
division
hockey
entering
wil
##rin
ease
##ied
kai
##and
##itt
outcome
shipping
127
temple
metal
bags
published
museum
beloved
differences
tracking
##ned
##ua
journal
bothered
##kill
acceptable
##path
ordinary
william
navy
counts
delivered
ships
rebuild
controls
sham
ser
##sible
claiming
interests
grip
react
##els
mir
ultimate
newly
bold
blowing
degrees
cancelled
thick
bruce
spice
##ye
transparent
hatred
fuse
conflicts
pope
ns
45
wasted
penn
swim
fourth
informed
technical
fallen
clone
ace
kicking
leaked
journalism
housing
##cta
reliable
##bra
uncomfortable
depth
kara
##nch
##aw
##ren
pointed
kyle
99
stadium
disney
##oit
eva
jose
odds
##ets
constant
puppy
##riz
query
##tha
##ches
behalf
anne
cheated
unusual
fascinating
irrelevant
sci
shirts
##ode
##ele
##phones
rallies
clark
comedy
apologies
slap
khan
inner
lemon
nix
##cated
##48
##ney
##war
horn
meetings
copies
shy
senator
hunter
deserved
greg
mute
williams
transition
backing
bones
pub
hopes
attacking
##hood
cloud
ak
swift
managers
##ef
population
critic
allegations
playoffs
warned
trees
gather
##oth
phrase
busted
index
mentally
##ui
virgin
##ges
##lie
leftist
##len
assistance
privilege
cameras
habit
nail
miracle
##lon
jumped
secretly
produce
limits
cookies
roman
consent
sample
buzz
ballot
discover
exercise
torture
##ure
##ville
existence
timing
melt
teachers
colin
##rp
600
stats
secondary
legally
##run
artists
wage
models
seattle
parade
ras
yourselves
disturbing
twenty
royal
revolution
fascist
submit
cruz
corrupted
clicked
##gli
sore
banks
##ual
ego
##rit
##zu
neighbors
##ste
discussing
joint
foolish
lisa
##bber
suspicious
crowds
##ear
recounts
##rop
flow
areas
directed
laughed
humor
##wood
##hm
solutions
##nto
##oca
mega
educated
owners
bride
whites
satan
howard
##ania
##tell
91
tricks
goat
hunting
mach
soccer
mistaken
##ties
returning
activists
penny
marvel
susan
priest
##world
allowing
absurd
probe
spaces
superb
timeline
##50
##hs
superior
doll
breathing
##field
##oot
traveling
raiders
plastic
borders
##uck
selection
##db
anthony
expected
achieve
bitter
resist
bears
##ave
cough
700
diversity
mainstream
##ony
consequences
##nies
blend
lang
ross
##bus
##hen
champion
tooth
needing
blaming
stairs
measure
ash
bae
panels
hc
prices
displays
sony
examples
skill
##hin
chin
safer
darkness
slot
cue
majesty
follows
##gic
justify
handed
adorable
thee
##ugh
praying
intense
newspaper
stretch
partners
sorts
fits
##ura
unfair
##fully
pts
##hee
significant
naturally
committee
nothin
worthy
##kers
adventure
radical
seed
creates
##oa
hosting
dallas
ignorance
knicks
apprentice
differ
##core
sara
socks
terribly
##scribe
escaped
catholic
ae
punish
vol
headline
duke
articles
conservatives
adobe
##iv
jon
brutal
creep
##mel
hon
sons
##sho
fried
hamilton
signing
snaps
pine
blu
solo
hammer
lip
##tl
ml
authentication
##wind
##act
23
hacker
appearance
directions
fort
90
3rd
closet
granted
cowboys
usable
websites
pills
digging
nan
tremendous
equipment
##lot
kan
fond
cave
jin
##era
qualified
##oni
slim
carolina
audit
bal
morgan
valuable
defeated
seeking
dip
puppet
vega
nero
vr
prayer
##ose
bravo
recipe
personality
teen
sang
avail
anime
cousins
##vis
backwards
volunteer
miserable
potato
authentic
##ake
patrick
dash
trapped
radar
diamond
structure
beard
shrink
##ulate
guru
fee
gifts
associated
tapping
dutch
knees
robin
##gon
solar
bing
instant
bump
barry
##iva
triple
##ulin
##rda
##aco
muted
fools
downstairs
vehicle
confident
gray
##ses
fights
##del
beaten
##mute
surprising
completed
##sca
preference
lp
arthur
district
noah
pressed
gum
saint
kay
intended
##cus
locker
symbol
begging
wal
pounds
##ail
factor
dynamic
keith
##ras
##pac
##ncy
sits
racial
comparison
##pressing
##rem
shocking
##master
billionaire
tre
salad
pepper
riot
nickname
reputation
##ien
##mu
anthem
telephone
ripped
neighbor
judgment
##elo
##bble
##ical
brief
##ead
losers
##rti
##bed
worker
##craft
locally
capt
prom
##lam
ata
condo
represent
nephew
booth
mans
##ich
agreement
mock
bizarre
##fk
preparing
juan
##cake
purple
arnold
wore
closest
davis
din
##thor
enabling
hating
rhetoric
mug
strongly
confession
donna
expecting
frankly
jumping
label
##ssa
commented
yell
attractive
bait
dub
champagne
##vel
wisdom
bam
rings
deeper
##orted
therapy
heavily
lex
rein
worship
appeal
chaos
brandon
flynn
jew
##16
macro
custody
aggressive
annie
val
gore
reminded
##stra
january
##ked
##hell
requests
comic
brady
aux
reckon
uniform
embrace
hank
junior
##hed
##je
##gis
driven
medium
gilmore
annual
##ental
dedicated
##ote
figures
stephen
terrifying
settled
investigating
##ene
amanda
##dom
universal
##kt
originally
nbc
eats
##sw
sector
procedure
bare
surface
landed
halt
confess
##ach
##pha
sweater
##wer
visible
raising
ditch
cn
catching
touching
insist
garage
surveillance
surrounded
abandoned
strangers
deck
nerve
##ans
roast
##ek
stack
annoyed
extent
smiling
dea
recorded
pattern
##hini
##dos
matthew
appeared
idle
sticks
affected
##usa
essentially
cared
wizard
tables
referred
convenient
relationships
politician
##sco
bond
##sle
##kit
alter
oscar
emmy
seasons
desert
described
##ching
tiger
las
kat
selfish
funds
genuinely
defensive
pup
honour
tradition
##ati
fame
bubble
blows
##ution
##ray
codes
acknowledge
geek
rb
##group
##ath
combination
tokyo
packed
hail
resort
carried
diet
dumped
##hea
scheme
biased
removal
sucked
ownership
latter
lighter
realise
agents
firing
merely
##ters
shortly
southern
cult
tricky
dam
elaine
dammit
fishing
bacon
enlightenment
julian
reviews
beyonce
##200
mole
gunn
musical
##tine
temporary
enterprise
hay
requested
##bor
curiosity
##iii
interrupt
##rf
thy
threatening
burns
wreck
claire
wayne
tee
hiring
depressed
sexually
##mmy
charming
##tz
throughout
repeating
functionality
madness
closes
doug
latin
businesses
behaviour
spots
beside
invisible
knocked
wires
##ented
generate
##uts
rope
cleaned
applied
executive
studies
claimed
span
##ups
##uit
irish
##pies
##qua
ina
wah
playoff
##rel
##bag
statements
suffered
downtown
souls
chapter
98
humble
precisely
lb
completion
reaching
boost
dept
reduce
packaged
xvi
walter
assure
proved
crystal
carson
combat
array
adds
parted
commission
rum
steak
inappropriate
typically
kitty
##gar
mccarthy
baker
rational
sheep
handled
roller
por
endless
dodgers
cheaper
urban
conditions
##nation
##let
joey
attempted
succeed
lessons
happily
##dog
caf
pad
waking
##una
saudi
flop
transparency
frustrated
##bt
lyrics
admire
drank
tragic
suits
lucy
##lle
recognise
hid
dive
##pol
fis
aaron
grass
##maker
shipped
segment
motion
hee
fest
##row
parameters
identical
largest
smash
tasks
##ust
mccain
covers
specified
##type
metro
printers
ghz
footage
anonymous
cole
folk
emotions
lad
languages
wrestling
fran
treating
pam
shade
theatre
dreaming
handles
##lf
sounded
dat
null
tournament
canonical
tyler
hog
controlled
salary
##oon
jackie
##mate
unfortunate
destruction
coup
privacy
flavor
sip
##pel
pose
permanently
pointless
guides
allen
48
occur
sticking
generous
dim
determined
##fort
proves
##ila
hers
beautifully
nad
extras
70
stunning
##are
throws
##fm
bandwidth
fever
##ump
cord
mars
##usion
120
foster
##tsu
confuse
developed
heal
##isk
korea
stab
domestic
resistance
wallet
poke
yoo
frequency
opponent
##yt
defined
angeles
clarify
proceed
##mbre
##base
chasing
july
ik
memo
objective
katie
##ope
##att
##movable
layer
##tie
carr
ensure
##hra
brazil
rabbit
##ache
resign
strings
lean
nails
stake
privileges
temporarily
##media
bastards
##nse
jenny
cigarette
approve
liv
laying
marie
marked
twist
pile
##hine
inspiration
audi
essay
viewing
fin
woody
flags
leaks
molly
performing
soap
robbery
discussed
closely
earned
burr
##room
latino
##pped
wealth
lobby
improved
stat
##hal
##inate
heroes
hong
loan
burden
fabulous
excuses
reagan
holes
##ov
##mit
grind
marathon
##cum
##win
sequence
decade
affairs
dod
maid
discount
kong
allah
guilt
vanilla
foul
voices
rejected
kam
stated
adults
worrying
punishment
spreading
syrian
##vr
##loading
kings
favour
booked
clay
nancy
satisfied
straw
crown
ambulance
relative
guards
lantern
##tist
halfway
harsh
ava
relate
jamie
steven
combo
##rogate
shan
terrified
polish
employee
unnecessary
jess
blessing
seth
exhausted
##rus
02
##tors
outs
##lm
##gie
damaged
##cky
mixing
poverty
kingdom
flame
glory
roy
intent
##bel
rangers
wilson
merry
animation
saves
##ase
presentation
##thing
fork
wig
frog
releasing
assigned
versa
forcing
##xt
250
jesse
##dal
##aha
##sic
hampshire
##cci
scored
cleveland
engagement
interviews
trained
abandon
filling
liz
attempts
skate
approved
##rh
injuries
##bay
positions
assign
##sun
##ogy
##rie
entertainment
cone
comparing
shed
exam
intro
##ali
pipeline
lineup
##lim
toxic
##eak
delays
{
relief
steady
scientific
bothering
##block
robbed
supposedly
##old
wwe
length
##bies
##chu
phi
##av
##ots
creature
strikes
trolls
seal
##hir
##ander
rookie
irony
survived
classified
gap
pour
##cia
mann
##pan
entrance
nowadays
##eon
rack
karen
piano
##mar
remaining
establishment
overs
remarks
##sume
signature
workout
##vent
developing
yer
modes
##rked
##gc
viewer
##tive
indiana
warrior
complaint
gentle
fist
dee
shuttle
ether
handling
fairy
##tas
loyalty
hills
genuine
phase
overnight
dong
##fying
elaborate
##ggy
yorker
insight
##pod
}
##ddle
##val
houston
category
champ
150
expensive
marco
##uni
washed
##berg
##uch
##ith
responses
##ones
processing
##pie
##ill
hoped
##ici
destination
mud
belly
communication
terry
consistent
cher
austin
liberty
enforcement
basket
##ening
##ffi
sasha
warren
##ym
stability
politically
upcoming
92
lynch
shore
lily
execution
invented
##gno
##around
abs
adi
##kh
producer
struck
apples
actors
35
ahmad
gordon
knocking
##ering
electric
poly
##ffin
theories
weekly
ultra
lgbt
blake
grabbed
designers
fries
flesh
pd
forgetting
lewis
##ane
bully
happier
brad
launched
delayed
cleared
##ute
blonde
toys
##ric
##bility
##bron
stepped
##low
##rre
lion
climb
ghosts
gan
breeze
maps
methods
maximum
guitar
##tism
##cript
fridge
##cede
betrayed
pleasant
ian
demands
##hill
##via
deaf
##nin
concerning
goods
greatly
choke
roots
##gf
swat
fry
ari
whiskey
situations
tae
spider
gossip
fifth
depression
proposal
rod
##ero
executed
##hel
arizona
coke
pakistan
##tto
##cle
sac
captured
nas
understands
purposes
awards
listing
##25
##oun
##pg
cherry
penalty
bury
revealed
shook
engineer
oz
routine
2000
fiction
faced
engage
advisor
##ax
rely
distract
paths
##ative
losses
##race
regularly
aliens
sketch
blessings
##nl
starbucks
parameter
conscience
##ery
##ira
##ung
shelter
##eth
liquor
wicked
27
##ere
naive
zu
carol
wealthy
builds
italy
traditional
##ivity
render
jen
spelling
vital
retired
madame
eternal
kissing
rumors
lightning
fuel
paranoid
##sar
mysterious
carlos
unofficial
crawl
scheduled
abc
##lb
##tm
texts
confirmation
composite
aide
##some
trauma
purse
questioning
creation
practically
vent
deaths
philosophy
ellen
##sive
editors
01
bean
rot
##lip
frightened
##eh
accomplish
##lio
confusion
championship
nicole
equally
sas
requirements
compatibility
##vable
prisoner
hose
swamp
oliver
##och
conclusion
advocate
destroying
rome
bass
##ult
republic
sober
sensors
ricky
pace
actress
regards
##cks
aus
packets
terrific
zen
historic
drum
immigrant
##rse
mist
oath
##gue
hats
polite
tastes
##uche
patriots
mario
unhappy
##cas
##tle
curry
knight
rumor
##cking
intentional
feminist
nobel
functions
ironic
##hip
bros
craig
illness
elevator
hedge
##nat
bucket
communist
kris
regime
mature
theirs
acid
jeans
minimize
flawless
browns
heel
replacing
##just
eastern
##worth
accessible
##hole
presents
insulting
contra
troops
icy
berlin
##ann
introduced
emi
raining
cooper
imagined
zoo
maker
penis
carrier
temperature
manner
principle
26
downs
cultural
symbolic
inspiring
stance
conversations
ter
collar
abu
joseph
fears
angela
##right
marc
august
lau
responded
pak
european
##girl
##rai
construction
approval
volumes
betsy
spain
murders
weakness
##pot
##ified
28
suite
nate
sunny
bounce
dialogue
infrastructure
sucker
cube
##ford
##mal
brush
mw
accessories
##cco
nos
shutting
##nna
quicker
fx
underground
##ika
rogue
vampire
scientists
##iel
##oke
ripping
dummy
surrender
clues
believing
##bing
motivation
pause
messy
85
kidd
##dre
donors
##own
criticism
admits
##game
##eno
swedish
launching
grief
feeding
locations
walker
##ula
luckily
fence
swimming
##ken
chef
promising
proposed
organized
mighty
peak
respects
shaking
trivial
jacob
##cts
##eau
belief
poster
##sd
briefing
ck
##ault
##mounted
wiped
suspended
nest
bis
brit
daughters
##ias
angle
flew
rank
##nar
diego
##fle
ally
##hon
##oop
bald
wen
kissed
providing
vic
derek
occurred
abroad
ars
zoom
pep
celebrity
sai
##cos
relatively
rocky
moderator
literature
cabin
monsters
finn
visa
lovers
modified
mistress
verse
laundry
nee
chatting
meets
mountains
identified
##rand
vague
niece
participate
wears
atlanta
tolerance
somethin
encourage
nec
streams
##rra
districts
julia
##oss
academy
##jack
inca
cookie
necklace
##oint
minus
rag
##mis
mia
deputy
shawn
jeremy
##vy
monica
filthy
communicate
upside
outrage
whatsoever
replies
dragging
sizes
risky
froze
welfare
lid
guessed
rory
linda
lend
conduct
gallery
packs
finest
activated
cafe
pork
reject
eliminate
divide
celebration
##mba
cb
mobility
healthcare
speeds
sanctuary
rear
stubborn
statue
casey
romance
lawrence
##date
900
##sto
##ffle
dice
connects
vincent
##uz
responds
rex
condemn
##uro
disconnected
##urn
premiere
##iso
homo
##nad
protesters
##ials
shouting
hopeless
intention
betray
beth
pale
##lr
twins
hai
tis
parker
invest
mana
##iro
##print
vodka
pennsylvania
##apple
##omi
##outs
packet
minority
##ecure
95
cables
facto
76
judging
produced
refusing
indians
commitment
prick
albert
helen
##lis
pledge
beau
blur
contacts
drawn
arc
graham
punished
continued
##30
bottles
uc
toss
trains
36
rising
chad
intellectual
treason
nude
simpler
kern
blunt
slice
funded
cemetery
lincoln
timer
palace
encounter
ich
paradise
incoming
##lk
chloe
compete
theo
mice
slight
marshall
julie
maya
decides
##marks
##tory
pcs
potatoes
##dge
imagination
extraordinary
forms
threaten
noble
unlock
rocket
evan
recommendation
grocery
##ctor
canadian
nod
prefix
nelson
##uk
fields
frequently
ceremony
flies
drain
shaw
rolls
locking
##iling
existed
torn
##gra
scenario
minnesota
slash
screwing
embedded
refugee
cas
##iter
longest
russell
##cious
encountered
dressing
flex
scanning
##nbc
occasionally
##chy
quest
##zone
ford
accent
comrade
##burn
arrange
finishing
greet
fallon
ward
chess
addict
spinning
whistle
spirits
passport
oppose
authorities
cleaner
prose
##sul
##18
breast
yelled
veterans
roster
##mini
productive
dodge
repeatedly
##vor
##script
trips
wives
formal
##ther
##ang
##unce
tragedy
greek
##ised
laughs
##ae
remembering
cracked
lightweight
sorted
suspected
bullying
poorly
stupidity
furious
popped
entertaining
circus
blackmail
sydney
sins
aboard
peanut
barn
witnesses
masters
region
stations
##rip
mocking
##ori
begun
shooter
fighter
buildings
exception
flights
counsel
##nie
carpet
predict
treats
##ept
worlds
impress
##lau
tuned
opportunities
hints
queer
ist
marcus
problematic
##tta
singer
kidnapped
##phile
len
brick
canceled
surf
hardest
creator
accusations
oven
vile
##drop
##15
sunset
wei
##wt
##mps
##mart
albums
desperately
translation
mani
##had
units
spiritual
hannah
chamber
##version
minded
inch
##cap
broadway
resolved
spotted
obsolete
gus
propose
casual
semester
whip
wrapped
spoiled
##try
presented
onion
distraction
ding
dragged
permit
stall
##ration
##uge
donations
finals
##gm
readers
##20
coding
encoding
drill
verified
norman
##ih
involve
throne
rotten
marine
##eo
antonio
landing
dishes
chains
caring
importance
##oll
suitable
corporation
opposition
references
fastest
tara
buffalo
promote
kc
hugs
potter
##une
someplace
convicted
highway
##rro
height
rats
chairman
troy
dow
##rch
poetry
deadline
kw
##rdi
##hog
##ime
retire
cum
proving
##ban
mutual
wed
gamer
extend
##wed
artwork
##dl
samsung
ipad
mx
nearby
operations
underwear
ranch
printed
survey
ax
quinn
starters
buddies
faint
wounded
silicon
##nel
##wg
##ese
misses
payment
##wave
buys
##pes
collapse
urge
documentary
certificate
lynx
convincing
##vir
vertical
featuring
toronto
investment
adopted
bullets
sally
galaxy
cowboy
heels
quietly
ordering
assignment
zombie
arrival
narrow
cooked
improvement
##rino
coin
starter
beans
races
bbc
educate
packaging
alley
judy
anderson
producers
superman
publish
winners
stressed
complaints
vulnerable
widow
soda
lew
ultimately
mvp
awareness
mcdonald
##ara
insults
acted
sour
triggered
jonathan
##grad
##berry
poem
fog
##ride
skull
serves
demanding
kindness
harris
spoon
owes
realistic
##worthy
##ience
managing
protests
##45
mg
streak
adept
grin
43
##ward
dessert
sul
pulse
displayed
##tam
neutral
engineering
mitch
##sk
motor
ruining
crab
tapes
verb
realised
mothers
registration
bonus
hips
##oma
represents
favorites
accomplished
slam
operate
dictionary
pigs
dogg
adrian
gamble
passionate
abby
commissioner
charging
prisoners
servant
alike
shark
dough
endorsement
furniture
wade
slug
clinic
drone
spray
pockets
vince
associate
scotland
disappointment
##ili
unsure
isa
patriot
thrilled
cbs
villain
marsh
##ona
mummy
maggie
##ics
sleepy
combined
flee
naughty
lauren
whereas
utterly
cries
colleagues
##ities
shorts
intern
sniff
##ede
filing
##tos
communities
relatives
founder
potentially
##lda
quo
##mies
terminals
selecting
kindly
sucking
excel
##rot
beings
components
roads
starving
##aking
cass
possession
bleed
colorado
graduate
writ
cree
sheet
martha
surprisingly
##ency
pill
wikipedia
sept
worthless
portland
credibility
retirement
matching
bureau
debut
##np
midi
node
##ssing
##70
privately
##gina
lamb
teddy
wheels
studied
wished
voluntarily
abe
##ova
tale
nam
targets
nations
realizing
occasion
##nic
tad
amazed
waves
entitled
##ols
##pal
wonders
##tou
ralph
##ered
bas
overcome
##eck
guaranteed
##eva
outdated
emotion
dramatic
vast
applies
##ending
prosecutor
lighting
waters
outstanding
promoting
twelve
##dic
filming
slaves
97
##lor
schwarz
##rba
##pas
##ided
nikki
laser
meantime
tram
childish
bend
blanket
##az
##see
sammy
jungle
species
instantly
transport
clan
##oli
anxious
lone
scares
contrary
medal
##wing
wrist
beck
maintenance
severe
rainbow
increased
barbara
chart
craft
##yr
actively
66
yankees
confirms
##40
remarkable
accountable
shadows
rolled
luxury
cells
wai
lawsuit
tens
##vil
cliff
batch
deer
avoiding
adopt
underneath
contribute
dug
ashley
##ator
disappointing
centers
adviser
tablet
cease
denver
joins
franchise
##ages
aspect
portable
##reate
edward
mig
angels
cod
##qual
##sat
transit
##die
shiny
##overs
shane
cruise
sympathy
mai
capacity
subtle
##its
honesty
##eus
lesbian
february
##fra
breakdown
detection
highlights
ale
viruses
rand
gaga
##gical
rubbish
goddess
mere
powder
continuing
##nti
grows
concentrate
excitement
rosa
dozens
performed
rio
betty
denial
homer
donated
dale
##ability
##izer
jihad
capitalism
pulls
duplicate
instances
established
##bee
sting
respected
meaningless
badge
neil
brat
##ited
plum
shoulders
shave
pole
translate
avoided
##ove
eagle
dignity
fees
##fire
toe
practicing
##tale
##66
##sol
##mber
blamed
##wy
affordable
parallel
fewer
premium
iconic
##13
hispanic
##54
xml
harassment
slipped
##sf
sandy
ole
arranged
hem
##uli
##iga
tal
goose
colleague
tracker
tai
##hom
conceal
salute
##star
georgia
##cked
corrected
apr
##ata
karl
scrap
reunion
peer
stabbed
sole
sweep
hunger
jazz
freed
billions
satellite
skinny
crushed
obsession
ion
blade
practical
sells
centre
pillow
wax
unconscious
##bro
fade
interact
anchor
divided
sarcasm
##js
scores
portion
hawaii
emperor
spill
ginger
photographer
##pit
separated
lipstick
squeeze
salty
##uld
stones
##his
gil
functional
##ude
fooled
olivia
tomb
##fold
##nity
##md
alleged
scrolling
mhz
compromise
##rys
fitz
##tel
painted
smack
businessman
iii
travis
bragg
watches
respectful
##quin
##nding
stare
clothing
sunshine
queue
58
iss
lecture
##21
constitutional
##ence
roughly
planes
efficient
##100
collins
##hak
cotton
##bby
harvey
raj
convention
##ao
strictly
sorrow
mason
engines
administrator
northern
##eal
jaw
tolerate
##isi
invitation
spencer
liver
watson
reno
accusing
##ono
pas
tribe
crossing
mint
dom
debating
stanford
##ipe
moore
willis
##itic
haiti
bk
lick
##rang
thirty
cocktail
baked
mack
israeli
hoc
enormous
allies
stump
victoria
stunt
socialist
manufacturer
lowest
petition
christopher
advantages
lucas
soil
##ced
noted
##sse
##gui
dennis
peoples
cooler
coaches
##fp
demons
explanation
floating
##iff
thompson
##rum
stroke
mick
figuring
alicia
survival
frankie
ara
joo
nerves
spark
##rut
##fide
captive
witnessed
blink
relations
awe
surround
females
##iz
herd
yoga
##tia
curve
nsa
beers
lakers
##written
prism
96
espn
nathan
##ala
##uss
packing
faithful
##mic
divine
francis
objects
dated
##uous
thieves
sided
##agi
alec
ang
frustration
converted
vt
twitch
polling
unfit
##ider
detailed
texted
mania
ore
obey
##dict
supplies
##wash
strict
coal
corps
##omo
quan
zoe
murphy
##rds
reduced
##abe
suitcase
sack
replay
meek
##lou
murray
unacceptable
stereo
##ddling
stuffing
tends
controversy
glorious
atmosphere
divorced
##rian
##balls
korean
##bre
amber
##has
foods
partial
expert
tub
rosie
deadly
bands
jennifer
##xa
motive
shells
worn
amongst
containing
slavery
##mist
##fication
platforms
tennis
ranked
##90
catches
dreamed
luc
lease
##nist
metaphor
turner
pound
dime
##udge
candle
colony
denying
preserve
dread
##nor
seo
##nder
##oping
56
weekends
naming
sensible
##tus
##face
##lee
mont
misunderstanding
nico
promo
effectively
challenges
##utter
literal
eps
palette
chargers
muscle
lust
margaret
kirk
washing
photograph
infinite
pump
joan
cheek
dame
##cute
issued
popping
copyright
smug
interfere
massage
keen
amusing
socket
##more
congressional
##ema
##bal
finale
81
ks
soc
eagles
citizenship
symptoms
subscription
lacking
historical
elites
removes
merge
switches
nina
stiff
legendary
arrogant
dai
##rud
guardian
arrives
variables
correction
reid
doubts
gene
burst
marty
thirsty
hobby
judges
ode
catherine
tire
##nee
attending
##ida
fathers
stating
hoop
assassination
openly
grabbing
surge
sonic
surprises
norm
sox
boycott
sworn
purchased
##agger
granny
cara
blair
holocaust
risks
monsieur
courtesy
rebecca
lbs
delta
##dle
pixel
indicate
flawed
arena
warming
arab
hilary
a2
navigate
promotion
honeymoon
poisoned
seam
spite
##ened
gag
coffin
helmet
##ada
plants
twisted
emerge
approaching
##asi
beliefs
funky
monthly
heroin
pitt
oregon
82
unite
ethics
jared
comeback
viewers
extracted
corey
rapper
##lth
toes
defendant
recorder
olive
vicious
phoenix
cinema
farewell
stoke
remembers
##rita
crook
kenny
##giving
distracted
nr
erased
##idi
inevitable
agrees
inches
disrupt
lunatic
titles
##kie
mart
reveals
oracle
##gat
express
warehouse
fright
gathered
##nia
illusion
##das
tops
##mming
permitted
patrol
rocking
advertising
##gu
slick
raf
banana
supper
madison
##ily
presumably
emotionally
mafia
harlem
moderate
olds
reflect
jumper
alabama
ein
lifestyle
ankle
##ind
beneath
verdict
##ttle
##mun
dining
sophie
clouds
misery
profession
rug
leather
wang
adams
88
targeted
geo
peach
fighters
insanity
apparent
headquarters
##power
##ates
##ever
farmers
bent
holly
increasing
##eem
violation
cooke
##dar
complained
sui
660
##front
nhl
##udi
chicks
avenue
theft
meals
activities
moscow
pirate
bets
circles
monk
##nte
##ola
plates
retro
rides
restaurants
shove
await
07
residents
cigar
whilst
##trum
infected
applying
shady
feeds
agencies
##gp
##ivate
boarding
hike
##gil
flames
connor
tack
##ean
donation
obtain
electricity
casino
scoop
trading
reckless
tits
grounds
regard
unto
travels
formula
bronx
abused
##ichi
credible
##bia
##oulos
commentary
corp
percentage
coaching
##vc
ignores
routing
chrome
incorrectly
discovery
##chan
##lence
relieved
passengers
roses
kent
comics
lance
tod
portrait
asia
viral
##ette
obe
precise
gambling
homeland
rounds
needle
yen
##yan
recognition
##rce
moonlight
intentionally
nun
##fin
savings
speeches
crop
cartoon
ware
##ground
##oted
provider
##nds
##acious
diana
liquid
sebastian
strongest
##yd
##life
les
reed
stuffed
testify
sufficient
barr
puff
##dou
##cate
andre
cigarettes
razor
racing
hooker
sap
##sor
toni
##vot
grammar
dakota
automated
nw
selector
upstream
##lessly
harper
##gram
element
ike
idol
jewelry
diamonds
clubs
##ril
##sg
gabriel
##bid
vendor
discs
guidance
##ndo
perry
##fies
pastor
flush
inspire
conclusions
generations
shield
##erson
karma
cannon
reserve
##torm
eco
rams
fuss
##hre
boards
1600
gears
campaigning
##nst
outlook
79
generated
##ifying
##rov
fifty
##adi
transferred
amounts
tube
elena
advised
cursed
##wan
mitchell
absence
judgement
elephant
substitute
fuji
groom
independence
interrupted
gloves
versus
lens
devi
jedi
##avi
individuals
attracted
fortunately
##formed
magnificent
39
turnout
clips
##loaded
soundtrack
##gal
marrying
restored
spike
butcher
slaughter
void
sonny
fundamental
960
##bil
##phobic
29
ninja
greed
finishes
detecting
silk
chew
oldest
boxing
persist
##graph
diverse
kv
freely
repeal
organize
gale
frames
##bri
powered
gem
conde
scaling
spelled
promoted
a1
detroit
wii
consoles
wolves
sausage
martial
orlando
dana
russ
xiao
##nda
grandson
ling
gel
exhaust
initially
wes
horribly
pacific
shorter
operator
##sie
disorder
##ista
##aro
involving
origin
stewart
tags
##onne
academic
crucial
##vie
minorities
topics
tesla
retail
launches
randy
##rol
summit
forbidden
carrie
bunny
trunk
liam
##ull
threatens
instruction
banner
hatch
shining
wendy
canon
bingo
conscious
haunted
behold
backpack
prank
kurt
temper
##ifier
flint
tribute
##sal
pearl
tequila
lego
##ings
lacks
160
displaying
replied
passive
thug
##flow
##tek
integration
outlets
mlb
##hc
cad
##unk
cricket
##ums
policeman
##achi
##gor
tender
rifle
snack
weigh
cents
dependent
hairs
nominated
crunch
tackle
lawn
trucks
ruth
robots
imperial
sunrise
simultaneously
dei
rainy
##haw
disappears
shrug
skins
sql
stamp
##mpt
samples
scientist
critics
combine
oak
sincere
##odle
chang
profits
assaulted
dealt
##cula
oddly
principal
classroom
##lz
enthusiasm
malcolm
##ius
bella
##ike
##uis
introducing
outrageous
unavailable
leaf
recovered
##pressed
##side
beasts
organic
quiz
ideology
##cards
tempted
iowa
hz
becky
ark
civilians
mort
##uta
righteous
ritual
evans
kisses
germans
dealer
industrial
poker
overwhelming
##rod
altogether
prem
ravi
##kar
philadelphia
dove
offices
##dget
##orn
##ndi
earthquake
lounge
misunderstood
bracelet
hut
##bet
traded
##ege
ceiling
dresses
threads
limb
willie
hurricane
hardcore
failures
fitting
##zes
##creen
fascism
exhibit
##cer
hears
feast
grid
##with
##aki
carries
##truct
scrub
stabbing
philip
##uy
heath
vain
pasta
competitive
drown
questionable
whichever
03
##mina
raises
##dt
barber
bern
slides
bargain
sans
forbid
##efe
offs
dismiss
elements
##cent
recruit
##tate
##ibe
quota
programmer
semitic
persons
plea
escort
embassy
visitors
affection
leon
farmer
sadness
##rating
greedy
##case
marijuana
therapist
louder
##gard
comb
absent
appreciation
breed
perfection
revolutionary
##ret
##din
##cko
pregnancy
skipping
##oped
cows
##ado
moan
battlefield
testimony
encouraging
turtle
sticky
lam
heights
ireland
petra
rating
##fur
announces
bombings
##39
flooding
jeffrey
##ski
heavens
deposit
suspects
mentor
gram
needles
aids
declare
##nail
controlling
##pf
##imo
peek
hawk
clap
equality
robinson
popcorn
serpent
capabilities
ratio
tent
tattoos
spectacular
christine
meaningful
warnings
consistently
##dam
##mus
jun
alexander
bomber
swallow
association
spicy
dorm
nik
##leg
##mos
##tone
predator
sanity
heap
spreads
grasp
regulations
motivated
possibilities
##alo
uploaded
##sis
observation
##fan
affects
poet
pawn
membership
assumption
consumer
bankrupt
##pop
jumps
whale
usc
undermine
##lash
partisan
punt
hbo
##stand
sixth
sheets
cape
##heads
kitten
creatures
butler
##arm
##lem
transcript
##uke
##bis
sarcastic
forgiveness
pencil
cope
tactics
pursue
gained
importantly
blues
##rick
technique
veteran
##aly
monte
worm
betting
facility
ned
nightmares
bats
addicted
superhero
##vet
##rad
involves
lions
flashing
addiction
documented
principles
feb
interactive
aleppo
investigated
mines
devils
implies
harvard
clara
departure
shack
##uth
raymond
difficulty
##tick
undercover
37
accusation
mentioning
consideration
collecting
crowded
##ptic
mast
##bas
peg
earl
stanley
pneumonia
memorial
elvis
##grate
##lad
inserted
sued
##dda
##osing
retrieve
warns
##ln
addressed
spends
trek
glenn
conversion
macy
partly
##ando
##under
thoughtful
stark
component
ethan
numb
##ppa
rita
pip
##een
paula
bachelor
madonna
hq
ape
ongoing
passenger
vladimir
fold
intact
leonard
yan
lands
##cie
disgusted
##tore
intentions
utter
##mot
solving
boil
slams
wells
##xie
##cope
parody
##post
reminding
2005
##ggle
notion
insulted
##illa
monkeys
holmes
suspicion
joel
bark
##lian
survivor
46
dal
disturb
killers
aged
hostage
##rry
attended
cisco
fig
henderson
42
counted
chemistry
delightful
purely
leap
australian
workshop
battles
rural
globe
florence
converting
challenging
##antly
refers
allegedly
searches
##mins
86
##van
mickey
sharks
shoots
##hes
challenged
fiddle
visits
tucker
newspapers
frightening
kennedy
##oin
bells
embarrassment
assembly
homicide
ellison
misleading
##ddy
optical
invasion
publishing
winds
committing
ruins
##aga
prey
jj
polar
utilities
##eu
modest
hayes
##ifies
teens
invested
crane
athlete
summary
commenting
##ively
steelers
headlines
forecast
paperwork
feat
handful
concrete
autumn
highness
cater
revealing
manners
##water
refreshing
variety
belonged
retreat
auction
helpless
ming
teenage
touches
##umi
tau
kidney
rang
honorable
shelf
bypass
##eye
uno
saints
declared
##itor
courts
kane
##bbs
container
electronic
lasted
dull
props
specialist
leaning
prophet
questioned
jc
acceptance
functioning
colon
##stick
linking
tyrant
deciding
airs
horizontal
##3d
singh
gangster
andrea
##mir
forensic
candi
reception
##ale
katy
kidnap
##ique
venture
beam
rash
puzzle
haley
##kel
corpse
crypt
pets
##lai
fulfill
establish
##eer
##iness
overtime
rushing
thoroughly
##town
cracking
leslie
##cher
bandage
puck
ringing
vip
##gers
zach
##orin
sounding
obscure
##xious
tran
blinking
physics
intensive
kerry
skeptical
heartbreak
##chai
processors
distributions
surgeon
halls
hitch
remark
eleven
##aran
signals
bonnie
tina
styles
wandering
diner
senses
psychic
mae
doomed
malone
chickens
contempt
waits
ache
photography
##imate
##gam
sock
##iate
##ium
flirt
decor
hind
deliberately
##eni
audition
faulty
pony
tires
wages
chilling
##ios
gps
licence
thugs
##ntly
curl
##inge
themed
voodoo
describes
nike
kang
##lous
implying
louise
healing
lung
wounds
isolated
overseas
clicks
discipline
crank
44
perfume
##logy
contained
pancakes
riley
empathy
rubber
basics
##lier
regrets
sob
##bba
shades
forehead
trusting
inviting
ness
entertain
marshal
stepping
plague
kentucky
mates
jug
laughter
##tron
appearing
##izes
duel
lads
compromised
substance
##gged
##tree
nailed
jelly
reflection
##mbe
##ught
##gist
paragraph
rotation
migrate
camps
sentences
pairs
berkeley
sway
sg
mapping
deportation
louisville
##athi
centuries
favors
##ancy
bishop
##ising
copper
bore
eun
smoothly
drawer
gratitude
catholics
coconut
relation
violated
shops
fragile
##lok
featured
##lusion
manipulate
tier
eng
interviewed
patron
suited
brooks
eager
hoax
manages
arabia
towel
delivering
statistics
insists
rails
brands
##dgets
virtually
buff
implementation
##nsor
freshman
somali
utc
socio
heather
snoop
conquer
planted
baron
rai
experienced
##oki
grim
##mma
atlantic
##ines
admiral
salon
##zoo
##ites
##eli
habits
##rak
squid
##zza
focusing
arriving
squat
##sey
grill
oppression
cane
tortured
roles
maxi
halo
alto
unsafe
aria
hosted
porter
grabs
##bound
colored
baldwin
##zie
graduated
aces
graph
newt
editorial
venue
freelance
sections
controversial
waiter
cocaine
compassion
##gent
##ders
quarters
gathering
monitoring
toll
dared
##iche
shrimp
##alia
##tis
prediction
hotels
##ella
##jou
grades
reportedly
dolphins
batteries
##lov
existent
hottest
##uen
renew
##vic
yun
sincerely
practices
##ppe
##dh
hometown
##ease
gains
describing
recognizes
conceded
supremacy
pv
helicopter
ladder
distant
kung
iq
dona
abilities
probable
##cial
pirates
##ments
crisp
pickup
momma
addressing
pest
graduation
delighted
noodles
waitress
##ways
lax
von
##nh
##ener
##lled
ign
screamed
margin
envelope
##pee
parked
emerald
owen
lesser
ruled
##rade
rave
engineers
recovering
devastating
praising
##edes
template
clemson
easter
contacted
freaked
wool
rivers
janet
##ett
chemical
deploy
carla
loudly
learnt
gravity
##var
meter
hostile
lottery
rebel
##ture
despair
vest
opponents
squash
harold
eyebrows
barrel
encouraged
sundays
spying
vietnam
calvin
exits
##tty
71
alongside
curtis
tricked
cluster
associates
touchdown
interference
##hic
mca
##mmer
integrate
350
##dan
##mond
candles
targeting
flexibility
unrelated
trillion
##nig
##asa
allison
bliss
mika
##nob
megan
dancer
gwen
##ben
##iating
coaster
##hun
profiles
girlfriends
murderers
tore
predicted
revenue
##oro
smoked
admitting
donkey
smashed
caroline
scarf
britain
womb
optimistic
##fied
kun
sleeps
irritating
##ight
whisper
rust
31
ox
vera
implement
##rah
ideally
cheering
instinct
difficulties
denies
##onic
##vati
lc
mocked
pumped
refusal
##dot
snacks
handing
##hem
costumes
allergic
34
##cation
troubled
occurs
vacuum
cooperate
##ato
dismissed
##lines
mona
samantha
yang
float
2006
overwhelmed
prosecution
##dor
stray
fingerprints
syndrome
##nded
prosperity
daisy
brock
sensation
distributed
violating
elementary
husbands
adventures
umbrella
glow
##like
thai
largely
communism
craving
scope
heritage
trim
nevada
54
achievement
220
recognizing
selections
standalone
802
assured
creek
transform
reserved
comrades
indication
atheist
facial
resigned
sealed
kei
daylight
grain
zombies
breasts
33
lungs
tanks
scotch
##abi
attach
nationalist
markets
screening
##virus
protesting
##eng
airplane
competent
vu
activist
suspense
maximize
significantly
aug
diary
##hai
screams
couples
utah
vegetarian
ashes
ducks
hans
wakes
##rst
materials
tense
fen
##band
mei
accepts
##oning
rail
##ush
sleeve
recognised
brew
pry
requirement
trough
goldberg
penguin
mab
avid
teaches
ancestors
##sier
worldwide
##cala
##zar
aesthetic
marginal
falsely
##jet
highlighting
valentine
canvas
elder
vanished
counselor
lump
patty
booking
##ago
##gna
pinch
camel
euro
nora
barnes
horizon
zack
##osa
##tur
gently
##yne
tactic
fifteen
columbus
luggage
alfred
baking
announcer
satisfy
crow
hysterical
phenomena
airline
##iful
##rle
pouring
94
horrific
lana
##iver
avatar
##sari
medicare
wink
legends
brace
##makers
accelerated
fitness
preventing
riots
socialism
##cm
keyboards
##uj
flaws
investors
##iled
ronald
stud
##words
stroll
felix
objection
coe
survivors
armor
obtained
representative
succeeded
kansas
flick
prejudice
realm
labels
mali
sings
magnet
##vio
rusty
##oud
finance
##nick
##sil
separation
pittsburgh
aimed
##fus
trevor
remake
nasa
mustard
vomit
opposing
civilization
genocide
colours
morality
##pati
pitching
##san
##dly
##ois
404
poisoning
exclude
alexa
##writing
occupied
executing
sized
##stic
brightness
palmer
heir
indicates
gina
rated
herr
wander
massacre
##backs
piper
vintage
franklin
##obe
##zzi
##mine
reaches
scout
desires
panties
lac
bees
volunteers
noticing
##eet
gloria
opener
##ico
campbell
visitor
##sma
carmel
sabotage
engaging
bei
##atic
##df
unpopular
variant
680
cattle
medication
fare
bribe
##rup
lola
pins
jeep
orchestra
##rco
arrangements
hart
nicholas
feud
##fect
reign
imply
gall
professionals
torch
communications
oxygen
tres
backyard
seated
ada
##aby
genetic
chopped
meters
##nal
rental
duties
customs
dire
dwight
##uto
mankind
assets
bikes
##ologist
swore
##keeper
distribute
regional
nh
prevents
rico
cardinal
pow
prompted
improving
clearing
assumes
analog
bosses
##was
witches
cloth
##rio
bowling
repay
##hari
reactions
appoint
tread
pablo
schmidt
##cis
shen
hush
lois
##bone
pierre
##zen
caller
jax
camping
repeated
cans
##mad
robb
hulk
rebuilding
##ano
##nis
parole
##lers
resident
tearing
qi
restrictions
scoring
institute
##take
##uer
##tera
##ller
vessel
credits
##lings
##tern
concussion
privileged
unity
desired
hector
##night
sheer
binding
prospect
compressed
##dote
compilation
##zzo
phoebe
fortunate
ellie
defence
ethical
##nni
##him
fireworks
pond
marina
stain
approximately
##far
tagged
freaks
scent
priorities
christianity
duncan
formed
parrot
cis
popularity
rented
mara
carbon
matthews
planets
tease
##any
increases
##bes
320
marcel
##wil
misty
##rily
forge
mandatory
holland
attract
unclear
seeds
coins
stern
wb
greens
dani
maintained
manchester
discrimination
bp
unused
mph
##plex
dreadful
snakes
miranda
scandals
ska
alf
##gun
shotgun
##yah
flock
chased
chooses
destructive
arabic
natalie
blond
fleet
##max
psychological
submitted
##hale
intervention
duran
begged
sums
contracts
turkish
withdraw
alphabet
melissa
representing
incomplete
jude
champions
institution
separately
##cel
##test
##33
administrative
protocols
fines
thankfully
##late
primarily
amara
##meric
framework
cw
preseason
barney
achieved
lore
dentist
##lice
samurai
##lite
jae
thirst
devoted
household
##tiv
afghanistan
pistol
maine
endorsed
praised
astro
ridge
estimate
##rkin
insisted
##air
frequent
altered
climbing
##ega
partially
circuit
observe
bluff
designs
stalking
countless
congressman
courier
choked
enforce
##poo
outlet
casually
##tter
hybrid
danielle
solely
defended
critique
optional
broadband
explosion
landlord
cured
mattress
##oi
strangely
##nan
##hall
morris
lester
rib
athletes
cody
quad
examine
##rdy
passage
lasts
campaigns
competing
deported
anal
##sies
nana
levi
robbie
caution
sharpe
teresa
egypt
mourning
lal
##eto
unlimited
homecoming
bundle
##mill
##rer
##tton
##rid
evangelical
##km
libertarian
##xy
##col
stripped
##tain
infection
kidnapping
delicate
runner
graves
careless
endure
closure
lifted
capitalist
ronnie
##eme
reasoning
briefly
gala
deed
asset
##eur
intimate
donor
##nting
##titles
impatient
##iri
quarrel
artificial
personnel
smiles
##hil
snatch
72
jenna
pinning
bartender
##lls
vegetables
investigations
##bury
receiver
exclusively
rim
halftime
patent
organizing
raced
interpret
genre
08
##42
##tc
eki
toby
soy
drowning
shallow
wagon
euros
sponsor
tang
confidential
countdown
vanessa
##guard
unaware
##stle
economics
shepherd
jules
posters
orphan
##ees
yuri
males
gill
walt
axe
haunt
paintings
##ular
benjamin
swan
measures
spine
drowned
jade
prescription
gran
sophia
stella
profound
apologized
sage
graf
squirrel
##lies
elf
lei
starring
apocalypse
##ison
disregard
cooperation
glue
rival
parliament
punched
panthers
owning
##washed
crust
consensus
criticizing
bombed
bodyguards
##51
animated
##52
orleans
raider
##rous
dolls
##uka
swords
pierce
convenience
istanbul
sailor
hides
cameron
##quent
follower
##ough
glen
drums
bruno
##nier
merit
appointed
hesitate
mina
notorious
##berries
lined
bulls
##ents
##woman
##ians
inherited
65
rains
pudding
rehearsal
pedro
alcoholic
flipping
##rna
suppress
shelby
banking
quantum
##isation
corporations
gladly
labeled
shaped
tex
##uce
##wk
primaries
messaging
indie
violate
analogy
##cot
sprint
renamed
ufc
noises
chant
##icia
chunk
lloyd
celebrities
ruling
routes
##qu
##till
piercing
employment
riddle
lent
dumping
terri
sail
##sus
negotiate
supportive
haul
gerald
sandwiches
ivy
choi
thorough
##eda
grape
slate
##uting
bailey
springs
lea
resignation
##ilia
cuff
residence
##zzle
##ein
qualify
vows
patterns
collapsed
attacker
labour
audrey
##ital
fisher
abusive
hugh
##sas
fargo
##fest
ethnic
alaska
##rks
##erving
capability
eras
derrick
authors
ballots
keynote
alexis
phantom
robe
##ond
picnic
##sper
teenager
joker
soviet
##hp
##uba
mild
contrast
layers
disgust
##unda
rite
##ych
nearest
##born
cereal
eliminated
tourist
fled
##sky
mansion
lamar
malik
hideous
buddha
vulgar
##ela
buster
saga
celebrated
hollow
##trust
##uga
##oof
sparrow
##ories
highlighted
subjective
##enia
##vale
founders
terminate
performances
##fb
bytes
autopsy
chairs
mercury
stevie
mikey
youngest
##ured
skirt
ranks
unpleasant
gia
amateur
hypothetical
receipt
computing
##iy
disguise
isaac
inherit
dwell
traveled
trials
appetite
iced
steals
47
##gio
token
##bell
##ape
masterpiece
thrash
simi
##opa
richie
##hear
skilled
##yar
##dad
het
romeo
weep
##kis
alliance
specially
glove
clutch
ua
surrounding
##bara
compelling
towers
sourced
2d
##turn
environmental
instincts
parks
twilight
shuffle
predictable
2003
jerseys
perception
turnover
rappers
##phobia
struggles
migrants
indy
postseason
##edge
sung
sentiment
sofa
##hol
bernard
bites
sights
archie
pretended
##rest
shifts
##burg
pension
conviction
carrot
photographs
snapped
millionaire
##gled
detectives
missile
bananas
thumbs
warfare
##rte
knives
##lity
coded
sacrificed
innovation
spectacle
breach
sponsored
criticized
matrix
##arat
spilled
93
interrupting
discussions
##nta
interpretation
##neck
##ppy
##jun
civic
##oid
comparable
##rity
agreeing
palo
compression
##ners
fundraising
hydra
vinyl
tennessee
charts
filters
installations
highs
144
conflicting
##vb
meteor
rae
comet
trophy
summon
relay
stir
##dale
##tech
amid
payments
ministry
greece
gesture
brass
63
randall
##horn
harrison
steep
pier
##tub
##tting
##rist
##nge
bolt
hilton
##rke
baltimore
trafficking
representation
##ams
argued
servants
resting
stew
reese
gorilla
55
relaxing
jefferson
##cca
##lets
bases
beds
pending
##ssion
##ulsive
secured
imagining
savior
##bol
fitzpatrick
fang
jewel
cakes
casting
elderly
fir
harvest
cardinals
skipped
##open
delivers
quoted
mechanism
heated
commerce
oriented
##br
##eral
configurations
reflects
remix
stil
lethal
cargo
##akes
##nik
injustice
nak
reclaim
occasional
publisher
responsibilities
plead
rebels
bennett
##xes
##oko
remained
dairy
##onate
##para
seduce
trainer
kira
##23
collective
chen
damaging
excessive
slowing
employed
rushed
sinn
essence
descent
spade
stitch
hopeful
reasonably
certified
decline
raven
solidarity
mala
tracy
insider
makers
##proof
algorithm
holder
webb
quoting
##space
brute
sectors
restrict
environments
suppression
##thy
overhead
cynical
mornings
cyrus
moi
brandy
sickness
paige
##sch
ranger
##walk
seas
##lene
dimension
skating
immortal
symbols
luis
movements
mule
##yon
stephanie
edges
curtain
palestine
vehicles
defender
disturbed
aba
##uation
towns
balcony
veil
##sters
lena
rescued
##roy
requiring
manga
revival
swiss
grease
vary
slapped
handler
linger
spotlight
3000
kenya
##eed
transportation
delhi
##iers
damon
brook
generals
barrier
outraged
grandparents
requesting
##ivating
maple
crushing
holt
##sman
straightforward
stem
advocating
980
##59
programmers
broncos
portage
outputs
bao
wheat
consume
##iu
sami
##iza
hua
roasted
lai
stakes
filmed
increasingly
aircraft
##iko
stalin
stefan
##eis
yank
trey
jung
##gel
##hab
##kan
christina
possessed
arrangement
kathy
##eta
revolt
claudia
strain
acquire
##lling
mandate
seize
lightly
mapped
adoption
acquired
##ulating
quran
manny
receipts
winston
appealing
assemble
##jon
announcing
obligation
terra
##lation
punching
farther
microwave
simplest
manipulated
memorable
goofy
##tish
roe
kg
improvements
750
destroys
redundant
citing
##31
kicker
modifying
blogger
implemented
cid
boundaries
tame
cinnamon
registry
subjects
##bers
villa
tissue
lydia
##quil
siblings
enters
limp
pens
dusty
supervisor
##rly
nigel
pains
remedy
groceries
garcia
julio
butterfly
##pate
balloon
unicorn
fierce
##oya
##itive
##oom
presenting
sweaty
vault
debbie
collected
elegant
wolfe
##wat
tossed
marching
##nas
singapore
##chet
thesis
ponder
hardy
seeks
predictions
vine
distinction
stalls
vikings
philippines
##git
##ppet
enables
yankee
peers
americas
vocal
participating
joanne
yemen
feminism
newsletter
transgender
peacefully
talents
serena
verge
rode
admission
motorcycle
blaze
das
flooded
intuitive
##llin
##gami
mortal
##bad
caesar
masks
samuel
chilly
slogan
nurses
##amo
harmony
chopper
##iting
motel
##tious
waist
generator
ribs
##tom
##mut
loretta
tiffany
mosquito
interaction
##bai
responsive
##het
straighten
reggie
communists
brent
drift
masses
##enting
sinking
gangs
morals
represented
organs
commercials
##ory
charitable
##books
upstate
seemingly
##edly
factual
jai
granddaughter
burt
grandchildren
clearer
salesman
speculation
crawling
confessed
prostitute
harbor
suspension
stevens
locals
forgiven
splendid
roberts
tomato
flashback
tate
respectable
humiliated
swell
##upt
proposition
##brush
currency
bounty
biting
quarterback
widely
newton
innocence
rehab
leverage
##roll
spat
harmless
framed
britney
digest
tunes
eligible
##ying
connector
##uan
fabric
eternity
filtering
margarita
epidemic
ting
suffers
outright
##wick
tomatoes
gotham
spawn
##bow
norton
##rase
inaccurate
##rion
palestinian
reverend
implant
uranium
slightest
##aged
##gating
herb
tow
feather
evolve
buyer
angie
warden
##ucher
psychiatrist
lia
bourbon
bumped
##uring
maris
dorothy
ransom
amend
blasts
loneliness
curses
accountant
baggage
cohen
preach
retain
fury
shovel
##dicate
herman
##ergy
hove
lining
lobster
lass
thrill
##rove
41
##aging
faults
hebrew
missouri
grille
tension
reservation
pitcher
##ended
##cise
collaboration
sloppy
##pire
reproduce
inauguration
viable
flaw
timed
flipped
relieve
beforehand
oklahoma
manufacturers
rodgers
##lter
eta
agnes
producing
##tered
katherine
maj
experiment
organ
exams
violet
hostages
chatter
trent
tracked
assassin
ryu
willy
recipes
invites
mori
bridget
higgins
lords
conducted
gregg
satisfying
##itte
anton
dragons
shakespeare
claus
musician
boats
matched
##ship
persuade
sorting
##lder
##ffy
narrator
##oku
##sso
impulse
unwilling
cairo
deeds
sandra
##lco
strategic
prizes
##cin
jessie
adjusting
trends
immune
##ota
showers
interviewing
##pants
tales
morally
theoretically
##rted
bulk
sought
transferring
##olis
nashville
palestinians
corners
flicker
bradley
manning
factors
definitive
slots
balanced
pagan
520
yd
consult
##lish
accidental
pipes
elbow
unexpected
fairness
naomi
tourists
garlic
triumph
radiation
revelation
suns
keeper
flexible
pere
diane
##inating
surviving
precinct
unarmed
redemption
lifting
realizes
4th
wrath
splitting
turbo
darren
##ashi
##text
abraham
gaining
valerie
rama
clears
transfers
##kas
grit
whipped
##oka
borrowed
hospitals
welcoming
##aks
carp
partnership
52
tasting
flaming
thanking
knot
sweets
glance
asylum
##dling
freddy
homemade
affecting
analyze
##mers
researching
##sson
irrational
apollo
jays
produces
##udeau
orbit
costing
##bert
##ridge
##rma
authorized
erin
superstar
pea
murdering
canyon
sniper
vitamin
injection
miracles
cautious
formation
hyun
##igen
drunken
##itate
muscles
dealers
colorful
##sity
killings
founded
##oto
oyster
esther
heartbeat
temperament
amazingly
mosque
allegiance
benny
applause
pushes
veronica
squeak
##dav
shanghai
##raine
##wal
draws
scholar
grove
programmed
shaken
owed
snuck
banning
##acy
striking
##ieving
##ids
struggled
jealousy
inning
##alle
##iste
daniels
bryan
ravens
manipulation
##matic
doubled
rr
champs
jailed
aspects
pali
isles
ported
##gies
cindy
##dia
outer
##tling
dart
##mont
metric
limitations
loans
bridges
psychology
punches
##emi
##turing
sharon
unlocked
bari
sweating
deceased
stuart
distress
##aka
portuguese
paw
godfather
senators
involvement
##rik
phenomenon
##kins
##weight
##cous
cheeks
titan
regina
foam
cartel
sonia
stages
boogie
accordingly
warp
##raz
##ssed
shannon
##nen
urges
rey
whisky
##while
consciousness
portfolio
assumptions
corresponding
contribution
panda
operative
ingredients
inequality
studios
earning
distorted
oxford
cycles
bela
##rock
##fall
mma
unwanted
platinum
##yx
monopoly
spectrum
##nem
viewed
replaces
vendors
electro
bai
accompany
marvelous
##kir
directors
protector
##shot
brenda
##ech
whereabouts
fuzzy
justified
vengeance
jewels
wheelchair
juicy
montreal
chili
##oys
rapid
govern
05
offence
kindergarten
##gizing
wc
51
surreal
evidently
##aca
rihanna
confront
intersection
mold
hogan
concepts
##iq
##eron
##joy
##rich
backlash
grants
##ffed
neglect
sophisticated
greeted
verbal
smartphone
receives
playstation
spatial
##lists
connectivity
maze
sneaking
stocks
boyd
##yre
##nz
spaghetti
yue
beacon
foe
elliot
betrayal
fountain
obliged
dye
09
michel
cathy
sierra
franco
##iya
infant
mccoy
powell
hairy
oversight
rewards
transplant
nostalgia
skies
gibbs
incapable
##lyn
prefers
mechanical
##ards
overlooked
tide
joshua
ghetto
instrument
pinned
escaping
rv
montana
##hur
##eve
##esa
5th
momentum
norwegian
bop
reel
blasting
vancouver
weave
thrive
##mann
divert
53
##ags
leaking
aiming
accessed
fundraiser
dominican
nationwide
islamist
belle
##ume
peterson
moss
wong
meditation
yacht
kata
##fly
stumbled
bunk
knights
attic
flirting
worms
spaceship
syrup
peanuts
lopez
##rret
arsenal
exhibition
condom
##eld
denise
fluid
interfering
nanny
fumble
hercules
bounds
huff
tori
furry
##cend
architect
tasted
porch
hudson
ironically
prominent
condemned
inhuman
##asse
paranoia
hallway
meadows
dino
##ues
mortgage
moist
##lent
floyd
strap
mustache
basel
danish
stove
coalition
##holes
##stor
insisting
stamps
owens
##ional
accomplishment
speechless
steer
governments
tia
backgrounds
tampa
premise
mixtape
playground
columbia
inclined
hiv
tess
refuge
corporal
carnival
pursuit
dispatch
sensor
feared
clarke
bookstore
hugo
burke
##ood
este
virtue
conventional
swinging
fai
##essed
##jah
federation
##cite
##gas
blackout
precedent
vampires
cutler
##ply
##rth
tigers
vale
nonetheless
grounded
humour
##ressed
##sur
##dies
freddie
lori
banging
##ense
mane
preaching
outfits
attachment
clarity
arrows
##anger
luna
chewing
romans
conor
##uma
theaters
bryant
protein
charter
wines
inactive
clash
levin
##ille
##wheel
albany
legitimacy
##tify
licensed
cite
freshly
guidelines
1400
caucus
consumers
referenced
telegram
84
avenge
choking
exposed
smallest
dizzy
thailand
sire
analyst
nay
##kind
##tens
##dine
expression
nickel
definite
fulfilled
deliberate
##nos
moe
maiden
miguel
playboy
fugitive
ruthless
monroe
tuition
concentration
ranking
immunity
imprisoned
simpson
##isse
##tee
##elt
drafted
baba
kettle
ambitious
peggy
satisfaction
examination
dex
uniforms
##bh
cozy
handwriting
canned
griffin
##yna
hanna
knox
foil
equals
clerk
publicity
peel
payroll
noisy
clearance
##quest
enjoyable
aisle
450
##stan
cobb
##cture
pitches
premier
##bon
smiley
demanded
salmon
technologies
##beat
tun
investing
posing
##pres
sensitivity
##tlement
labs
##yk
implications
shia
crude
companion
2016
vector
nexus
cores
##vos
periods
overwhelmingly
packers
controllers
ncaa
optimization
deepest
gifted
protective
rogers
explained
portal
nash
ramp
curt
countess
relentless
##hul
explains
doyle
appearances
debts
chambers
mats
chandler
douglas
tripped
bubbles
omar
##moral
saddle
wardrobe
spies
delight
melting
550
broker
slammed
rivalry
fia
puerto
moth
##ske
possess
wiping
pierced
construct
courses
fellows
whitney
archer
lace
devastated
##odes
mouths
##iner
##nction
optimal
trojan
sunglasses
ripe
bryce
2007
2004
incidents
branding
fabrication
##gree
##bain
20th
##aint
cincinnati
650
predators
##pio
autism
discourse
seahawks
greene
scissors
##rew
##taking
organizations
##uls
dolly
spur
caleb
vow
poems
sidewalk
wyatt
courageous
cloak
classical
rises
taller
harmful
crippled
murderous
baxter
pike
dots
dances
arkansas
healed
##rta
##pone
##uda
vaguely
maurice
##shing
disneyland
##hey
dew
cracks
psyche
confirming
##active
mayo
compound
peculiar
blush
nomination
prevented
##gins
rivals
globally
deficit
inability
extensive
##rica
##voking
reacting
lanes
outgoing
##boards
garrett
##iser
sparks
nominate
prone
baffled
ukraine
##mage
fringe
revision
unicode
tying
##sett
##hei
lindsay
destined
awaiting
floors
tao
nevertheless
deter
curly
##gul
##rdo
likewise
##hri
comprehend
carmen
cory
mills
fills
smiled
harp
liu
overheard
teasing
courtney
mining
corridor
pronounced
##ility
cola
ambition
neighbour
##bbling
honoring
##osh
woken
strawberry
inferior
poland
hotter
manufacturing
musicians
inventory
lok
roland
amor
##01
shaved
captures
##ckle
berry
##bbly
##boys
gospel
sequel
censorship
frontiers
##lain
inconsistent
##gni
##sight
tnt
##duction
ecuador
wwii
renaming
authoritarian
911
nursing
##piece
laurel
peas
##iable
intruder
sheldon
impressions
ramon
##suke
faux
felony
remorse
grapes
abuses
calculate
dome
supplied
kendrick
juliet
inquiry
##aya
liner
astonishing
martini
civilian
brazilian
socially
francs
shah
##als
sri
nes
arcade
polly
blossom
flowing
##gles
tipped
madden
biology
59
edgar
guardians
##pur
travelling
abd
raging
##ification
jackets
fashioned
hiking
##ations
drugged
49
cellar
placing
##long
##lom
migration
freeway
backward
curb
traces
transformation
peppers
ideals
##tier
accurately
lash
ideological
roaming
rotate
##14
outcomes
mcconnell
proto
averaging
##partisan
1680
outsider
polished
clyde
connie
##foot
ferry
karate
##ically
poking
##rgh
almighty
ella
rodney
hanged
orphanage
80s
decorations
constable
owl
brett
##dable
claw
carly
mao
##hg
egyptian
heroic
beatles
accuracy
exceptions
##wad
scully
sighting
##brook
##mple
enjoys
dexter
wright
##rgo
breakup
blasted
##ava
elm
##child
##ination
doubles
restoring
prescott
condoms
notices
##rant
##rina
kala
loco
relying
mira
infiltrate
1200
damp
towels
litter
indicator
underway
desperation
##hora
##19
scholarship
disability
needy
educational
swept
##xed
##gee
##yes
overly
grinding
advocates
##mg
bn
scheduling
vox
muhammad
pricing
seventh
martyr
switzerland
##rge
richmond
sneakers
amsterdam
##urg
##roids
##owa
##chio
##uven
##nable
builder
##ulous
amelia
chronic
jamaica
lever
instructor
muse
harassed
pilots
##tyle
tunnels
caribbean
mons
prayed
ira
flour
hunters
##raf
yuki
attraction
comedian
marines
##rial
slit
projection
viva
detention
traps
##wski
neal
erik
##pher
immature
homosexual
neighborhoods
textbook
perimeter
##feit
burton
singles
gaze
athletic
##inn
accidents
cai
accomplishments
novels
##cup
nolan
heidi
statistical
##lum
midst
lizard
##ouse
##rites
amir
tolerant
##sts
danced
##imated
##aves
theresa
flavors
jeopardy
downfall
jed
dreamer
##lves
##iot
##nea
disclosure
riff
##uo
nominees
##lei
comprehensive
##lag
##chang
implied
pleas
##icon
darker
libel
reilly
horrified
definitions
licensing
nationalism
salvation
relating
goats
##jan
alma
richer
backstage
stalker
accountability
sacrifices
forty
invention
gulf
nur
bidding
reflex
##bic
##aud
lev
wolverine
vanity
evolved
politely
gown
novice
lure
seoul
secondly
declaration
buffet
chun
sponge
##iving
bert
relaxed
##wife
dilemma
aqua
investigators
publication
spokesman
sentenced
guided
protects
occupy
74
##pid
maintaining
juvenile
distinguish
sentimental
temptation
furthermore
conrad
kobe
outdoor
imported
scans
tails
##break
necessity
credentials
tidy
##psy
duc
aligned
pentagon
dense
wildly
cited
##lini
##sitor
venice
designing
broadcasting
grande
##leader
caste
drought
banged
cocoa
bey
landscape
aft
mascot
timber
##rky
440
##firm
funk
widespread
##400
curtains
##sions
villains
disposal
bitten
explode
anatomy
railroad
##thic
##jk
cottage
gamma
restless
risking
##spar
##flower
sullivan
mattered
shiva
exceptional
loaf
generates
defeats
halle
bonds
moons
jolly
bran
##bbe
goth
negro
islands
simone
torment
mandy
georgie
##ology
severely
painfully
oral
##ager
clumsy
internship
careers
biological
peck
repaired
scratches
judged
individually
supermarket
##sser
57
wrecked
##sten
creators
prospects
scottish
incompatible
arabs
##34
canal
abstract
jenkins
sic
beverly
##uded
##85
persistent
##kka
guild
##ological
devon
bankruptcy
trader
colleges
flashes
##umble
almond
flavour
welcomed
5000
blindly
shouts
intra
##kara
marxist
##chment
chiefs
850
barron
nigeria
nfc
##itz
gerry
barcelona
stale
flea
urgently
fantasies
dynamite
marriages
bunker
lodge
investigator
lynn
arresting
puddle
seniors
coordinates
sherlock
maxim
darwin
##bread
pear
mumbai
##inal
phillip
compensation
turf
##guide
dried
ballet
irene
sato
manuel
intercept
abdul
flyer
onions
yin
arbitrary
grenade
iceland
##zers
notch
rockets
storms
bushes
louie
ufo
carriage
gilbert
classics
respective
dispute
##gos
fifa
rooftop
spiral
##due
##por
sexuality
lao
##oman
##lma
maureen
noting
arson
billboard
fiance
neighbours
founding
preparation
similarly
spurs
directing
##oper
mage
liability
clause
swapped
bradford
##isa
##zel
continent
##hor
##mise
alternatively
haitian
speeding
leagues
safari
iraqi
selective
universities
##dant
compares
assists
bikini
specialty
considers
##inator
cain
ambush
iranian
interpreter
wooden
prototype
tumor
missiles
isolation
pigeon
sheila
##rator
slaughtered
madrid
dawson
##rave
rendered
##rard
sherman
merchandise
##logue
lashes
regulation
cooks
angelo
settlement
descriptions
##pine
##flict
olympics
laurie
##mous
facilities
stunned
##ington
foreigners
sergey
##uate
contractor
internally
##uin
rapidly
buses
tempting
pyramid
arrests
teenagers
epa
vanish
boon
##ior
origins
nipples
slang
firmly
invade
##ption
clint
intrigued
##suit
observed
intriguing
robust
accounting
dwellers
##lic
##bari
finnish
veto
##pool
hawks
translated
albeit
verification
zones
dominate
instructed
legislation
jamaican
workplace
swearing
trails
silently
notre
hive
introduction
skinned
judicial
patriarch
innings
plausible
##eller
consuming
##rix
migrant
encoded
historically
redskins
domains
1b
toad
##gne
surfing
finland
scalp
liverpool
chile
mallory
unprecedented
coco
magician
fiber
brutally
##vas
##kai
spouse
threshold
##sio
pakistani
salem
bearing
balloons
apartments
madman
humiliating
supernatural
##nb
rattle
slipping
rebellion
##ilde
driveway
paddy
staged
inspection
orgasm
imam
##aru
firstly
weaker
esteem
schemes
##aj
shattered
##wise
doubtful
beckett
jacobs
##oia
mcgee
laden
assessment
reacts
rocked
thorn
operational
gallo
##mbit
##liner
recommends
##tea
mimi
arise
flute
midwest
##vah
heating
##ilo
##tering
drip
##icated
dominant
draining
strive
registering
uv
contributions
brow
prosecuted
teammates
announcements
##camp
directive
colts
conferences
diva
nightly
grassroots
feathers
shakes
##uki
gunshot
carlo
##kov
nova
otto
lila
warmer
literary
##awa
bach
conclude
horns
sylvia
taiwan
sporting
ants
meredith
patriotic
jonah
catalog
crosses
##oge
slippery
sofia
chester
scratched
thighs
##eter
initiative
clinical
abducted
daphne
howl
turtles
69
simmons
modeling
airlines
##aid
hindu
##oria
##onia
flap
brake
tuck
reds
tay
reich
colonial
expenses
##wai
shortage
##ido
boris
##rmi
costa
resulting
##shan
investigative
spear
##bey
##bei
elders
##rift
electrical
nicky
falcon
learns
productivity
poisonous
warner
carlton
melanie
unemployed
afterward
appointments
ortiz
willingly
bland
##ific
##ired
rene
orb
101
##aine
diagnostic
continually
align
decrease
nokia
clinch
brooke
warmth
unpredictable
leah
colt
techno
cassie
preacher
coleman
##atter
natives
##ece
deserted
discretion
alison
flare
##sam
choir
##uel
weighs
##bir
approaches
rightful
fanny
superintendent
risked
gavin
seller
shea
domino
isabel
coop
branches
diplomatic
veins
deception
glee
undefeated
unbearable
maddie
##bos
eater
##kawa
hamburger
scars
patricia
jennings
glitter
demonstration
##itch
vase
##dee
##zation
cheryl
stockholm
gail
hana
belonging
nile
manifest
weasel
1500
##umen
sms
declined
transaction
cove
faculty
merlin
##26
##body
consist
laps
processed
##alis
intensity
##tones
tango
occasions
##pse
visas
drones
takeover
promotes
glimpse
discourage
misconduct
rejects
seriousness
##bio
ipa
overlap
rankings
humiliation
##zh
##uted
##zal
exile
##vious
resentment
180
##nac
decker
waving
disappearing
depths
artistic
tristan
navigation
lindsey
honors
coughing
blankets
gypsy
bicycle
nadia
profitable
lookout
bricks
##coming
polo
##uchi
hyde
unemployment
programme
entirety
##tail
dictatorship
primitive
techniques
sperm
footsteps
smelled
shaft
mango
##phy
##tters
belgium
refrain
87
syracuse
ticking
chorus
cot
motto
procedures
uptown
scrolls
diagnosed
diagnosis
gabe
professors
cub
##shed
obstruction
##bill
uphold
clocks
dynasty
##gus
spontaneous
uss
shapes
83
thermal
orientation
##rose
cruelty
##ij
sovereign
usd
civilized
##cable
##wig
ingram
spitting
employer
customized
spins
commonly
attendance
strategies
disastrous
stalled
##cape
inclusive
stellar
approx
##igan
nightclub
venom
marble
believer
trusts
irritated
milan
villages
distracting
rider
helm
singular
hari
##rug
gems
triangle
memphis
##law
cooling
powerless
##hend
tyson
spiders
##ffa
tobacco
wizards
databases
whispering
##coat
recession
jerusalem
##bate
vaccine
rooted
katrina
gust
rebound
plunge
investor
reyes
##ulated
##rine
##bank
encourages
shirley
##talk
terminated
squares
62
relies
afi
complications
montgomery
##iring
##iki
##gua
##cuting
kylie
aggression
pageant
sterling
##amina
guarantees
##bridge
poured
##urity
tuning
staple
dwarf
airports
##yer
lifelong
phd
availability
farms
placement
fraudulent
kickoff
faa
pixels
counties
##ential
mls
tna
assertion
resolving
dora
withdrawal
steering
##writer
reversed
stumble
##uil
sniffing
##jure
vegetable
##nell
mermaid
harness
goa
wheeler
susie
qualities
tanner
cox
sabrina
seals
pitched
approached
identification
##rz
daryl
unreliable
miners
benson
significance
harriet
##omy
neighbourhood
financially
atom
feminine
equipped
mormon
fins
depot
##ctic
##gly
thigh
churches
##rey
gibson
sewer
##ammed
vie
stealth
110
erica
namely
##wei
helmets
##xia
explosives
smashing
joanna
meyer
intimidated
olympic
##oney
##train
magazines
comply
jock
##olin
tribal
drastic
##ulo
oval
##scu
leeds
rpg
shootout
venezuela
##mite
hires
##placed
hicks
initiate
bathrooms
##zzy
creativity
##rley
##tip
gdp
##sted
##than
##cuit
roam
##erty
claude
gong
riders
taps
chet
earrings
agony
robber
drawings
einstein
visions
poppy
essays
roar
ernie
##shin
seizure
lest
hymn
klein
hardship
##tort
settling
branded
##sai
lizzie
spared
crusade
industries
measured
indictment
instruments
fictional
##feld
harmed
##won
truths
##ement
dinners
##mur
kenneth
aging
remy
##kee
scouts
ninth
knob
accents
sly
reviewed
##rring
posed
simplicity
compass
compact
summers
jingle
genes
escapes
proposing
catcher
camille
fearless
consequence
inheritance
classmates
bouncing
##ego
##sea
influenced
gradually
traditions
abnormal
pursuing
coa
zeke
defines
##uating
cultures
piers
harley
lotus
chemicals
bangs
##eran
convey
benedict
performs
overthrow
institutions
poetic
libya
wavy
purposely
tuna
90s
rows
##ingly
fusion
coulter
##ely
speedy
950
donnell
suburbs
snort
nodes
podium
bracket
liberalism
consultant
julien
pang
biscuits
##sant
hospitality
isolate
abel
banker
regain
titans
examined
##hers
penalties
##used
digits
roc
trousers
cement
##yard
julius
##chs
##sley
becca
barbecue
bathing
##hwa
alumni
webster
barbie
mississippi
fruits
flown
peru
tactical
virginity
sanchez
anticipated
entrepreneur
plotting
windy
brien
78
yield
##ako
loft
weary
fiona
policemen
equation
determination
uncovered
velvet
faded
ounce
ellis
visuals
cocky
wrapping
optimism
##zle
##hart
jacques
eden
hawke
pits
lexi
pulp
folding
perceived
transmission
ono
##lessness
##hara
amnesty
unseen
##park
130
gardens
mata
ranges
##rmin
dubai
prosecutors
melbourne
proudly
wrestler
indirect
trailers
runway
flyers
exiting
categories
justification
limiting
indo
canadians
islanders
migrating
pseudo
delaware
licenses
nz
firms
##hay
sidney
tanya
dent
sunk
vein
stranded
dangerously
contributed
##iger
##ants
devotion
edible
krishna
##good
sliced
confronted
noel
dagger
expose
evade
bodyguard
bled
overboard
sunlight
walsh
surgical
brig
clarence
robbers
dante
sympathetic
13th
bumper
imaginary
brigade
consulting
amusement
pandora
##aan
##ower
aired
joyce
##wen
churchill
moses
plaza
ek
verses
##cure
cutter
consumed
psychiatric
librarian
##hold
sacks
earnest
neglected
sustain
rochester
orphans
usher
##chin
espionage
successor
annoyance
##kell
estimated
wilderness
invaded
##sir
7th
traced
spokesperson
claws
deployment
myers
abigail
africans
hazard
brody
nationals
casper
candidacy
selena
subscribers
##vision
maryland
efficiency
##etic
stretched
##tary
researchers
appalled
trio
assaults
contemplating
sacramento
foremost
arrogance
density
texans
##wear
digit
##dp
underlying
cheney
niche
##55
61
diversion
##udy
ollie
venus
atomic
praises
sant
##ryn
staggering
fleeing
poe
helena
##idal
neon
improper
##lal
##ija
potion
argentina
nyu
cartoons
compassionate
chapel
racer
blitz
platt
dedication
showtime
readings
liter
physician
soho
ivory
marvin
pounding
gasp
casualties
marilyn
repeats
##nett
##crow
operatives
m3
##nka
panicked
andrews
negotiations
rhyme
forged
eleanor
reservations
mtv
##llet
sweeping
##cki
weaknesses
tropical
continuously
waldo
roth
wrestle
loki
turk
graffiti
braves
##crats
evaluate
shipment
proposals
declaring
adele
religions
##bolic
aggressively
##cera
gandhi
freestyle
advocacy
texture
proceeds
temps
priced
inherently
##igate
diablo
observations
filipino
dissent
autonomous
myspace
inspirational
qc
arguably
##week
fk
##mx
noses
avengers
rumours
##tray
negotiating
gloom
disclose
hughes
saul
liberation
vicky
detector
natasha
administer
##llie
##icle
##itating
thirteen
disappearance
##arty
rendezvous
sleeves
tendency
##tian
jing
weddings
nato
burial
milestone
accelerator
glowing
graveyard
clayton
brotherhood
psi
barking
donovan
##fera
consecutive
marion
##kki
##rail
sighs
magnum
marge
##yin
merchant
treasury
overdose
##entation
theodore
rye
knit
skeleton
##etched
melody
assess
##bang
dental
frontier
##nstein
cupboard
##ores
indigenous
afghan
examiner
fossil
evaluation
electronics
fallout
treaty
##num
brighter
patiently
fletcher
chalk
hare
wrongly
harden
ucla
acknowledged
infamous
##ggles
awarded
marker
##peed
unions
decorate
sect
hue
foreigner
distortion
##founded
##hang
tomas
koch
##von
rampage
ryder
##vey
participation
##rates
shudder
institutional
##note
judaism
winger
233
advisors
sweatshirt
pairing
eyed
converts
inclusion
celtics
https
gigantic
##hoe
consumption
elise
##rier
##sby
interior
salvage
inmates
borg
fern
diving
##tower
##tric
panther
lasting
cobra
aryan
monks
detained
unfamiliar
strengthen
bandit
premises
bakery
indicated
##oting
photographed
##kic
##ivo
vivian
dysfunction
thanked
stalk
##ska
aero
slope
ropes
handcuffs
unfinished
sixteen
yoon
collector
pumping
friendships
courtroom
##aris
peasants
brennan
##ister
crore
policing
bauer
##actic
parish
refrigerator
garland
teller
reynolds
shields
spells
##tten
wider
unrest
##iac
latitude
affirmative
##ttal
sparkle
##helm
##pling
constituents
carpenter
herald
##plate
airing
adjusted
##rill
swarm
rake
restroom
##oche
##rga
111
thrust
pulitzer
zionist
cameo
carlson
bowls
sobbing
elephants
donnie
temperatures
##broken
obscene
##inger
sirens
colombia
scattered
siege
leash
contender
recruiting
##class
blanc
simpsons
utopia
lurking
pepsi
240
compose
bloomberg
pitchers
persona
##56
760
##75
defect
johns
beaver
whispers
moaning
entity
##verted
vulture
pads
##oso
basil
imperfect
flats
suicidal
continuous
hazel
aims
presently
representatives
jammed
wren
iris
bumps
gregory
observing
missy
demonstrate
timmy
##ision
keller
employ
rink
pratt
cryptic
housekeeper
vicar
##isha
perpetual
pia
bono
kia
influential
##owing
breakthrough
equity
scratching
practiced
quantity
stirring
lowered
vivid
##dles
soaked
plural
blinded
floats
stitches
##rne
preliminary
##oat
malicious
byron
nell
exited
admired
fists
shifting
interrogation
cloudy
lenny
teammate
forrest
findings
morse
6000
19th
boredom
purity
notified
ferrari
conform
tattooed
fascinated
moreover
geography
rubbing
illinois
melted
alyssa
narratives
##nson
uncover
blogs
linear
sustained
##ttes
centered
columns
lakes
masked
simulate
##zee
titled
##44
fluffy
metallic
dominated
predicting
##mates
480
argues
##itarian
shifted
##frey
trickle
demographic
activism
margins
varies
discusses
gameplay
dinosaur
informant
shaun
bronze
pamela
evacuate
##iba
gomez
imminent
mysteries
briefcase
creed
##ante
jasmine
eugene
reluctant
##igo
steward
frances
##elia
nutrition
##itis
futile
##rize
revelations
rejection
##ayo
priests
elk
hysteria
klaus
europeans
subconscious
##dition
havana
miraculous
painter
buckle
brawl
scrutiny
obstacle
gemma
cork
denny
##ection
schultz
##ige
frogs
rivera
linden
percy
concerts
##fed
##bbed
hannibal
referendum
discovering
width
dodged
coordinate
disadvantage
##door
mateo
89
roberto
##uw
##amps
incentive
thong
chinatown
mildly
rewarded
hearted
depended
morrison
provoke
attendant
lumber
loosen
amused
vinegar
lara
collapsing
##emon
doi
##eria
##olved
vlad
##uming
##leigh
raids
neural
lyric
##500
hull
tyre
edwards
braid
tonic
parallels
##tight
capturing
##zzling
##lace
illegitimate
nigerian
throttle
distrust
##athing
tours
contributing
trailing
seafood
##tangle
memoir
associations
##58
scala
##fia
880
flickering
electors
##pods
abstraction
raft
deprived
swallowed
wilde
##cter
##imating
edo
sustainable
vance
beneficial
yong
experiences
calculations
replicate
##tial
scarlett
##isance
penguins
##fleet
unreasonable
liable
restriction
##eptive
corpses
raja
sophomore
rhymes
crops
violently
mushrooms
##sling
rooster
magistrate
##kim
##khar
guarding
##zan
discreet
motives
esq
##making
baha
##uca
puppets
##working
##lifting
connecticut
##uter
##lift
jurisdiction
dracula
impose
##storm
godzilla
##kra
mechanic
##bach
##glass
elliott
##ark
cognitive
flashlight
8th
##dened
awakening
duct
experiments
cleanup
blizzard
validation
coroner
lava
##mans
vicki
preserving
waltz
cinderella
arctic
##ej
cheerful
##ads
115
cursing
identifying
blinds
##yla
outsiders
hernandez
employers
trades
fraction
longing
scripted
pact
evident
gestures
comedians
dramatically
fading
superficial
signatures
zealand
pillows
embracing
slain
##ays
teaser
reside
buds
weights
achilles
##ctions
ridden
softball
projected
ecosystem
generating
defenders
hitter
##cured
##erated
probability
4000
compliant
protections
wcw
modular
620
medals
explaining
scorpion
ferguson
summoned
barrett
sailing
volunteered
repairs
conducting
penal
grams
##nr
##dick
##quet
prisons
interruption
grayson
descend
##dak
replica
##enne
decorated
##vich
colby
ying
barge
rue
##oir
drained
dolores
paralyzed
tenants
hastings
##ception
shrine
haste
stafford
##pose
dillon
fiancee
screenplay
hayden
fortress
recruited
73
babylon
locke
finch
##buck
consolation
##isman
enhance
evelyn
distinct
##lty
noticeable
deployed
shoved
xavier
lux
##ahu
reindeer
##liness
sank
concession
acres
jerome
##bilities
behaved
farming
hale
belts
murdoch
cora
forming
yale
inspect
hamlet
lulu
fractured
guinea
##tley
philosopher
michele
##dian
6th
##maid
cardboard
downhill
panama
menace
diseases
nausea
rejecting
thom
##jin
marx
manufactured
brakes
##breaker
sinister
creeping
dashboard
insights
##ross
defining
professionally
emphasis
##vine
demi
smacked
barclay
disruption
nebraska
positively
consistency
vocabulary
##rence
helix
longtime
brutality
frequencies
chants
##rook
##ently
##65
referencing
storyline
butch
hopkins
depart
stigma
hostess
elsa
coached
newborn
##wes
accompanied
##etti
penelope
##org
exaggerated
##oran
javier
coherent
urine
113
##nde
cunning
##lina
tribes
vaughn
terre
naval
discharge
##cock
##gia
declares
abandoning
##qi
feng
tito
##mission
cologne
##rangle
##oris
pedal
##icate
scrambled
moose
sailors
possessions
boxer
##earing
galactic
vans
uncertain
##using
knocks
spears
substantial
richest
chores
ingrid
sling
backbone
rained
reducing
monty
fernando
67
##eber
werewolf
##jit
bulb
valentin
yields
hound
tractor
eyebrow
fatty
relevance
ankles
##ivated
acoustic
norway
##eded
blouse
spirited
heavier
420
sims
##liga
##rien
##zaki
##plication
##rka
##pus
trout
triggers
mondays
maturity
criteria
attributes
sera
darkest
mixture
590
##aba
magnitude
##eres
runners
hooks
104
deluxe
breaker
initiatives
1920
implicit
ioc
thriller
multiplayer
analytics
##illo
nassau
gaps
volcano
toilets
seminar
smelling
##oed
coordinator
##vant
licking
believers
fluent
18th
expedition
boone
##diment
leisure
##bbing
##tical
sewing
revive
tightly
##bbies
sideways
underwater
railway
##rva
amnesia
flows
outlaw
weaken
singers
hesitation
##tour
sketches
kirby
comforting
##imus
fireplace
havoc
listener
##osta
stared
distinguished
caucasian
rhino
compelled
oblivion
duff
##uising
evolving
herbs
investments
phrases
witty
shooters
blanche
bmw
crawford
appropriately
##rice
interim
bowie
banquet
shouted
patents
artifacts
fundamentally
##tile
basin
napkin
##ually
daring
##yte
franz
initials
##tted
prophecy
transmit
rus
spun
fearful
martinez
voyage
rosen
heavenly
proposes
##29
transformed
patti
confrontation
stretching
##tai
chapman
##zin
earnings
tornado
bundled
##horse
recycling
isle
executives
libre
stripes
violations
##eric
prompting
banda
reviewing
cale
brewing
coloring
##hard
accessibility
interpreted
##ologists
falcons
780
recess
pluto
jonas
##ibly
##kur
persuaded
stool
countryside
gabrielle
berg
##dhar
avery
winnie
tighter
##shaw
czech
##mouth
##edo
lionel
allied
assassins
graz
stacked
##bek
containers
hammered
bender
comprehension
brothel
imperative
phillips
##ncies
refined
travelled
roach
fragrance
##llar
devote
underworld
judith
##mity
pena
conditioning
mohammed
ensign
fatigue
##nica
climbed
##vat
hampton
goldman
firearms
maha
sakura
naga
##boat
graduating
challenger
dangers
collision
willow
wraps
##iculate
##mble
resurrection
maneuver
##nov
costly
humanitarian
yao
bottoms
##tched
##lass
perceive
rematch
mushroom
bravery
##hiko
seaside
##mism
vulnerability
advertised
##heim
adjustments
dementia
royalty
assassinated
raul
kali
andreas
unified
bacteria
proportion
##crat
broader
##hone
sutton
gideon
##tya
mantra
##sos
uncommon
disdain
victories
complexity
tabloid
##rran
gardener
##hma
silenced
##iated
gabby
crowe
louisiana
runaway
regions
hobbs
##athy
##grin
fuller
commits
subsequent
mimic
alarms
purchases
enhanced
designated
indoors
translations
##lick
omega
kashmir
batter
freeman
joints
sliding
norms
excluding
##ioned
newark
kingston
offset
catfish
##wu
chanting
feasible
listings
isaiah
midtown
unconstitutional
applicable
automation
byte
fragmentation
diesel
counters
fowler
kerr
nikita
scanned
michaels
prostitution
cheng
##uber
milton
mercedes
poses
altar
vapor
violin
satire
excess
oppressive
wilbur
tavern
patsy
petrol
antoine
certainty
tighten
coats
yoko
radius
##liest
zipper
burying
##bots
buyers
fisherman
##moto
jang
minnie
bounced
conquered
##fight
##rell
##hrer
appeals
merged
##yse
##oids
bandits
shelves
pearls
zeus
personalities
disguised
ejected
magnetic
contradiction
tong
vermont
mein
altitude
##oshi
lawsuits
##yama
dublin
trademark
fracture
##gler
marquis
peyton
##weed
terrace
kendall
lawson
vienna
ching
##aur
abyss
observer
tenant
##36
##lage
##otic
scramble
butterflies
assignments
sincerity
erotic
##sher
seized
crimson
exercises
authorization
swans
celia
decay
simulation
audible
framing
alzheimer
dinosaurs
akbar
yarn
loren
jorge
composer
concluded
swings
suv
bubba
doris
fined
dealings
npr
##vik
##stein
brussels
##uled
reflected
scarborough
magnus
tidal
saturdays
operated
reduction
geometry
##hid
##isto
##frame
avoids
##dro
angelina
providers
##llah
staging
angles
luce
##vill
##quisite
acknowledging
parenting
specialized
##rber
##pw
terminology
mascara
loops
illustrator
lengthy
stereotypes
pbs
purchasing
hydro
entertained
##wart
snapping
erratic
heroine
##uated
chancellor
demise
witchcraft
cabbage
##erina
perch
rabbits
statute
boiling
##tein
luther
scouting
gasoline
sands
slips
##phine
heats
##rone
lays
kathleen
timothy
probation
mainland
beaches
bates
lama
zac
dina
badges
afro
##pton
##dell
antibiotics
rags
##olt
caves
##keeping
qualifications
marketplace
solitary
manipulating
cycling
similarities
##llen
strokes
##oration
laundering
immense
contemporary
##tze
beijing
intervene
casa
wesley
##oms
lamps
watt
##umber
##skin
covert
uncertainty
##uity
humming
marking
invincible
titanic
##uing
drummer
compartment
expectations
rutgers
platoon
suspicions
##nco
cafeteria
##werk
##elle
trumpet
##plify
kite
boiled
adjustment
governors
grammy
urged
differentiate
morocco
columnist
acronym
##ditional
10th
consists
##woods
aldo
rifles
brink
starved
frankenstein
##works
##claim
kgb
fiscal
variation
##kam
##ogical
variations
netherlands
hourly
tainted
prevention
##lative
separating
trait
##oco
alam
##rson
280
noir
modification
insufficient
##runner
freedoms
justices
##codes
sunni
storytelling
##35
entrepreneurs
inputs
cdp
##rise
colombian
province
briggs
##wald
rests
preston
rabbi
hypothesis
##nant
gerard
wedge
promptly
##vern
##gned
adopting
infinity
companions
720
adolf
shri
medieval
indifferent
villagers
premature
maxwell
viewpoint
psychologist
##blood
cassidy
coping
sapphire
##stone
pursued
##ciful
defective
barton
horrors
bobo
##jee
severed
algorithms
##elli
##dio
mare
oneself
excluded
battling
genesis
windshield
bourgeois
vibrant
isabella
martian
installment
smuggling
byu
##ggs
charleston
coliseum
##ises
impending
##oga
penthouse
##insky
outreach
##rish
elevated
##roi
scenery
ezra
athens
myths
##rito
##powering
immortality
recalled
skiing
antique
##vre
##cier
##xton
##ddin
completing
doorbell
meng
recordings
holders
saturn
wary
##slin
coyote
sailed
elimination
breeding
passports
##lord
testament
earliest
otter
mater
tessa
schedules
rouge
rican
occupation
ahmed
peripheral
resulted
hopping
##wine
fortunes
tipping
##stock
dustin
giggle
gaa
##tead
##chal
qaeda
intermittent
##hus
extraction
##ours
adequate
##aring
rumble
historian
##dler
traumatic
williamsburg
saliva
warped
##graphic
resemble
secular
blazing
subset
##lita
ambiguous
derby
##aton
##inated
calmly
minions
##say
kneeling
##icing
##weig
translator
coastal
extending
##offs
intimidating
overrun
diagram
certification
shrugs
##ulates
yells
##ference
reigns
innovative
correlation
loyalists
mosques
pharmacy
famine
zebra
drifting
##anna
mesh
funnel
overlook
pajamas
classmate
squadron
taped
##eca
##ously
tanaka
pictured
explore
exempt
##worm
obstacles
##rama
wrists
allowance
##dent
##bib
lars
##wives
lively
##vocation
anita
herbert
##cine
##heart
sculpture
divisions
janice
dans
##isan
caliber
clones
rebuilt
valued
marta
broom
crocodile
mutant
explosive
nipple
unnatural
ric
lenses
debris
lengths
eel
##yang
##mith
##ady
comfortably
knockout
characteristics
communicating
ida
decisive
borrowing
novak
remarkably
aurora
treatments
pots
cosmetic
jupiter
corinne
planner
diver
charities
lambert
insect
ernest
##tua
##balance
afl
peacock
##stream
allocated
##hearted
realization
heavyweight
thinner
participated
2500
reactor
clare
achievements
stacy
##ptive
eighth
bangkok
viola
superiority
##acker
cannabis
elton
##taro
sanctions
axel
modifications
##borg
legion
viz
ix
##41
renewed
foreman
winters
allan
darrell
mercer
snatched
voltage
outbreak
cassette
celebrates
humidity
dominating
nonstop
kits
##dled
inadequate
##yat
alta
sipping
##kow
##acies
oversee
encouragement
##ucci
absorbed
raphael
cancellation
sockets
forwards
##fulness
flashbacks
projecting
circa
competitor
diabetes
showdown
##boarding
transformers
storing
akin
emerging
comparisons
implementing
semantics
como
niall
attendees
nationally
nationalists
tackles
cesar
davey
jia
traveler
##ais
deliveries
inflation
antenna
francois
listeners
lorenzo
thatcher
edmund
scrape
composition
exploded
##nche
philippe
##gaard
mutually
##xing
libby
lectures
diaz
nursery
objections
orchid
allie
buffy
##owed
submission
marian
devin
##ested
##tose
vikram
tubes
crews
##qa
buzzing
periodically
clit
haunting
tilt
defenses
renee
##uses
##hli
pioneer
##fighter
endured
##tails
aloud
missions
willingness
securing
sacked
##oda
##bags
fling
##sque
##rable
mechanics
##enter
piles
obligations
bamboo
performer
##tized
mysteriously
##rained
futures
manor
siren
elijah
bala
eddy
geoffrey
diploma
collateral
charley
2001
guarded
condemning
##ears
extinct
##may
constructive
finances
belongings
enlist
sermon
conventions
seldom
wand
##nty
constructed
mojo
##lge
acquaintance
dolphin
millie
##tum
decks
undertaker
105
flushed
permits
walnut
deemed
bali
rubin
calf
tile
##ppel
utilize
limitation
salsa
reunited
seating
taxis
chaotic
sentiments
originals
mixes
##aus
dion
##ott
##atics
algebra
frederick
enthusiastic
wrestlemania
attribute
##ddled
redesign
advising
##wide
paused
regis
reduces
afc
ebook
beverage
crate
radioactive
intellect
oceans
regiment
intends
liberties
hk
cushion
concludes
rampant
sparkling
sadie
ruler
##28
initiated
##fen
superiors
##tila
bankers
postal
lucifer
parlor
ariel
capsule
limo
##nah
##dim
colder
astronaut
rudolph
licked
footprints
stout
cynthia
recruits
##yas
reacted
wally
bolts
##logist
##cke
pollution
disliked
doorstep
##nger
##ald
emissions
virgil
vijay
counseling
pupil
rotting
##urt
holden
evacuation
aidan
merits
dresser
vogue
admiration
outdoors
socialists
##fell
rituals
weighing
distributing
convent
##rman
##grass
revised
tasha
convict
##kus
whipping
##gai
nk
brunette
##ogist
mischief
posse
##kal
brewery
goodwill
morton
##idge
miriam
retiring
northeast
odi
dynamics
##tled
coral
ribbon
##jar
timely
15th
scarlet
emblem
##lius
tumble
weeping
##lore
improves
advent
capitol
rugby
renewal
atrocities
##itated
dung
structures
##atable
##felt
shaping
resisting
impacts
carey
composed
synth
poked
alba
rbi
##ides
unanimous
##lva
##quel
erection
biblical
hussein
##eding
shaky
attire
periodic
bruises
##oor
lowering
damian
preface
ramsey
casts
presentations
smithsonian
vastly
arrays
apartheid
advances
schuster
sitcom
##ctive
##mania
economist
additionally
##bution
ieee
kato
artery
hamas
tablets
russo
viking
sherry
eighteen
syndicate
henri
jasper
pools
12th
hui
napoleon
prostitutes
exquisite
asthma
dungeon
whistling
corona
calculated
solomon
conan
viktor
##bbled
osaka
infinitely
discouraged
persecution
adored
invitations
alarmed
leonardo
atop
factories
plaid
cellular
fingernails
chapters
philosophical
portugal
bribes
brittany
breaths
##uso
slade
damien
santos
showcase
##static
##rting
pleasing
paws
slashed
exceeded
correspondent
manufacture
cecil
preserved
pont
##posed
lush
evicted
##hair
staten
##lins
poets
shaman
redhead
##apa
engineered
induced
adrenaline
yearning
motions
lilly
cosmic
pew
fences
participants
carved
##ples
##cchi
suzanne
splits
tangled
peasant
systemic
oro
slowed
##lase
dominic
photographers
roi
mistakenly
genie
psychotic
scales
copenhagen
##nated
hungary
wales
developments
##46
perkins
parkinson
footprint
anders
medicines
##ulously
bladder
invoked
uncles
organizer
inquiries
newman
##rooms
##ffs
championships
##lane
rodeo
monument
pavilion
issuing
##bold
hindus
focuses
blurred
brightest
timeless
##dae
debated
klan
indicted
fatally
##oft
##ances
populated
kenyan
qatar
##thal
ministers
orr
cassandra
##anga
brushes
##rok
idaho
tourism
chico
walton
norma
georges
offenses
ordeal
enraged
forbes
vessels
battalion
neill
karin
##lette
administrators
bruised
sergio
tian
##tness
##nical
##ductive
sixty
##riety
huang
immensely
mastered
##vance
accommodate
boar
zhu
##lav
lordship
coincide
##vies
##rain
intercourse
horton
minors
jem
hostel
cruiser
lieu
northwest
gymnastics
humane
damages
discharged
partisans
mba
daytime
edith
bard
evacuated
expense
salaries
tug
##vier
circumstance
receivers
##vation
mora
##yle
shepard
serum
##buro
crystals
lobbying
ambassadors
filtered
##lak
illustration
messiah
puzzles
##hering
poised
critically
stains
bows
dalton
##made
##mia
##sia
##unds
brendan
elle
restoration
assert
contractors
##anta
simulator
serge
bred
analyzing
attain
massachusetts
seventeen
##rized
wandered
quieter
implication
##heard
organise
sgt
prepares
intimidation
progression
benz
scientology
exceptionally
diplomacy
translates
paradox
independently
millennium
garth
researched
steele
respecting
flourish
triggering
##metric
motorola
##brand
nods
amiga
malmo
grading
incumbent
comical
stripe
nonprofit
demos
specifies
crows
mace
fremont
parental
resistant
wildlife
attorneys
##rek
##chen
##kha
##shu
clement
prestige
mathematical
meadow
elias
neville
dane
survives
inevitably
planting
exploit
##uman
lim
decoration
lenin
commanding
precautions
summons
mps
viper
##mura
afar
utmost
##emia
slices
limbs
##cht
militia
generosity
##enity
pupils
recurring
vernon
##zine
regal
jiang
shatter
forte
##jer
porsche
charms
prima
pascal
##oja
diplomat
attracts
blockbuster
fridays
solitude
##nya
southeast
##nish
##som
extensively
brilliance
silva
tendencies
thrilling
scenarios
##ater
caretaker
esa
geared
##alla
rover
draper
touring
cleansing
##ished
extends
pilgrim
rescuing
energetic
kant
swollen
sensed
ajax
soprano
##cio
imprisonment
##zak
pharaoh
sponsors
austria
swelling
certificates
compute
dubious
crabs
rays
eyelashes
moor
##cen
aftermath
determines
avalanche
hovering
reinforce
chunks
gallant
negotiation
##iously
kaiser
##cade
##eous
alps
honda
stacks
urgency
pedestrian
oblivious
##llan
analyzed
dismissing
fitted
drafts
metadata
forthcoming
hindi
cpi
##uru
suburb
curves
outline
##ures
ivo
##ives
registers
##dance
combinations
instability
crosby
filmmaker
##nio
##ored
discontinued
##lake
gracefully
denounced
tournaments
haired
electorate
huffington
downloadable
blossoms
arun
perez
##nified
liang
formerly
volleyball
sultan
##rsa
acquainted
atlantis
##cating
pigeons
leopard
boxers
parcel
##forth
##ntal
##jong
##tery
travelers
cadet
ballistic
grenades
dewey
ares
experts
operates
birthplace
brushed
melinda
##nished
frenzy
horde
trident
kimberly
##tina
circular
apes
insignificant
380
dimensions
advisory
curriculum
endings
assembled
tucson
hopped
##clusive
persian
bitterness
armstrong
testified
watkins
tung
##aster
sleeper
palms
##dina
resembles
lighthouse
casinos
statues
laboratory
snail
mandela
hardened
##ston
##inging
catering
grange
##lining
santo
anarchist
treasures
cuffs
strangled
interactions
cactus
##irs
bursting
imposed
pauline
zion
lacey
rendition
covenant
bipolar
checkpoint
moody
tally
sash
##pipe
zhang
armored
140
tailor
foundations
##ovic
interstate
structural
qur
topped
indefinitely
fours
strand
catastrophe
##eving
##0s
fresno
jul
muscular
gao
dipped
gauge
sega
attitudes
zodiac
och
marches
##ality
133
##iol
paints
##rno
replacements
culinary
spilling
numbered
accord
darius
mortar
kayla
collaborate
carroll
##ntial
##iah
welsh
freshmen
borough
##vite
pillar
suburban
##tet
defects
enigma
##mobile
oswald
bison
##ieg
cuisine
##section
completes
stills
ceilings
##bered
gallon
collections
radios
adamant
eliminating
spontaneously
enclosure
groove
pressured
retaliation
scorer
valencia
diplomats
denim
##cturing
crawled
feldman
001
rothschild
##tically
angular
affiliation
colleen
hayward
baths
shankar
offerings
budge
##usions
herbal
##lean
alberto
chariot
tossing
emil
##rae
prohibited
rosemary
demolition
asteroid
maddy
##birds
evie
devlin
voyager
paolo
sergei
norris
callie
goblin
ominous
##dha
morale
##mation
gracie
monstrous
juliette
macleod
dixon
raided
onward
visually
##gart
yearly
##logram
maternity
dominique
##ury
traditionally
##bine
forcefully
lawful
bombay
barefoot
sesame
chung
cambridge
handicapped
plots
assurance
##lde
##nare
blades
##kat
booster
dancers
##jima
kyoto
regression
intake
proceeding
pau
hunted
cosmos
detailing
ensuring
hugging
##belt
provoked
##nza
14th
##ades
birch
manuscript
exercising
saber
soaking
berries
remembrance
bret
alerted
confined
nearing
hiss
hierarchy
auburn
ammunition
crotch
rubbed
walters
tarzan
commodity
secretaries
seeker
franks
doubling
##tute
##uet
discomfort
bonfire
##chel
outing
southwest
widows
peters
hansen
##most
cornered
##olic
mystic
##eration
reassuring
circling
domination
casket
opposes
bombers
hugged
paddle
ancestor
commence
1998
maintains
scholars
##37
begs
tenth
rocco
spraying
deborah
untouched
doctrine
twists
##nets
bentley
demonstrates
##aux
defamation
##orous
149
francesca
howe
earthquakes
precision
amidst
hearings
##lid
fades
##zon
trembling
##berman
##trip
notable
measuring
##zard
identifies
pauses
##lated
subsidies
##igh
ussr
##hema
gaza
cheered
lastly
boxed
inaugural
rhine
##roller
celebrations
analysts
logos
##boro
coordinated
vaccines
smackdown
educators
handheld
u2
cbc
b1
voluntary
adjacent
octopus
##zia
isabelle
##pled
banished
fritz
proximity
asha
drawers
nicolas
majestic
yates
mayer
bouquet
postponed
##wang
stationed
inadvertently
lisbon
jockey
blaine
offender
##aith
interception
clifford
novi
##very
poorer
proctor
disqualified
beetle
booker
eldest
##rya
shocks
##elman
##osition
taliban
offspring
preparations
sublime
##mei
fluids
sioux
##hide
excused
rafael
parachute
theology
fragments
adultery
gardner
contestant
patterson
intuition
jong
##emy
squeezed
turks
##hetic
reinforcements
##dai
poles
adapted
legislative
caress
barred
##iji
outnumbered
exposure
shelly
tempo
billie
##dya
unleashed
advisers
provocative
submarine
##ocks
toledo
kenji
riches
upright
204
collapses
kilometers
##lch
lifts
##ining
##ceptive
2008
paranormal
abbott
caine
##cott
dyke
cornell
##vate
jeanne
stride
sparta
jogging
ruben
kemp
handbook
##sure
altering
buzzed
portions
nirvana
##ried
##urable
resides
twinkle
sorority
nemesis
athena
reliability
duchess
##ices
bristol
katz
balancing
##zd
advancing
intensely
resemblance
spence
springfield
vietnamese
dirk
tamil
##plicity
homosexuality
minneapolis
excellence
enslaved
unchanged
declining
defeating
chateau
jensen
##sburg
novelty
thriving
##dur
pilgrims
##fires
suppressed
alla
gloss
jana
forcibly
##ignant
##kowski
differs
roosevelt
paradigm
financing
bowman
migrated
probing
literacy
uganda
visibility
fronts
avoidance
resumed
academia
inaccessible
drills
##hta
##points
drastically
overview
dividing
corresponds
variants
cfl
bonding
##vere
huntington
conceived
tolerated
trophies
gestapo
docks
luca
hammond
edna
foley
70s
armies
delaying
##wyn
darts
biker
torpedo
##leen
cadillac
departed
reborn
rodriguez
layla
rook
nicola
proceeded
undone
helicopters
gallagher
barren
##lands
rents
alligator
grady
##comb
wagner
impacted
spawned
researcher
fabio
##lton
kuwait
nino
##verance
##erus
pastry
truce
sachs
twisting
##nga
expertise
##rned
eugen
clapping
aura
carnegie
invaders
hopper
santiago
discovers
##icles
nelly
crowns
starr
harbour
assassinate
dripping
uneasy
robyn
akira
hydrogen
injected
pei
shutter
unidentified
exchanged
chained
frail
quarry
undoubtedly
ceased
assisting
bays
##hurst
anand
lacy
##gens
ltd
sampling
crumbling
trunks
darcy
##zzled
reserves
communion
##nally
##cide
surname
##promising
##person
anomaly
envoy
debra
overturned
fabricated
reflecting
startled
fearing
bisexual
##cision
geneva
rhodes
discarded
soothing
eileen
unusually
expelled
relic
contenders
blinding
radiant
boundary
##deck
infrared
reversal
##57
richards
behaviors
brewer
tenure
##kon
salvador
anticipation
traits
bane
##gues
radicals
tucked
milwaukee
accelerate
##tica
truman
slab
fourteen
considerable
mathematics
sous
predecessor
##hia
transported
complement
indonesia
contingent
traction
contend
##ovo
trilogy
favored
##gement
##fare
collectively
barriers
criticisms
##lined
##mbs
accustomed
##cion
detached
floods
403
##dents
spikes
aix
##bians
fragmented
145
chuckle
relates
patented
octave
##notes
chevy
##vili
commentator
economically
gemini
residual
lowers
transitions
macintosh
splinter
slapping
picasso
italians
##rca
madly
tones
starboard
specials
deng
empress
ecstasy
trench
assisted
randolph
plump
shoving
artifact
judas
withstand
sails
boiler
irregular
shay
readily
haze
shelley
dispose
brushing
glide
musa
scarce
lebanon
celtic
barrels
##lik
herring
societies
alvin
hanson
erect
unsuccessful
hawkins
cosmetics
teachings
cyril
vatican
##esses
flora
heterosexual
punjab
technician
folded
advancement
attackers
cradle
##rius
cruising
tissues
stockings
inmate
21st
plato
chewed
necks
##cloth
hassan
bungalow
imaging
offenders
revoked
tammy
fares
##thest
chimney
brethren
peng
hollis
sanctioned
exclusion
patio
conductor
baton
browning
authenticity
caitlin
sheridan
##harat
extinction
breakout
##onis
squirrels
##ssar
##main
descriptive
abduction
boulder
boutique
dissolve
slid
##lun
recruitment
symphony
ito
businessmen
freight
contaminated
slayer
descendants
thereof
temples
igor
presses
risen
historians
##yen
flushing
englishman
royce
exceeding
##tani
crises
ample
unpaid
ticked
crest
emerges
routinely
shear
quentin
pressures
munich
aerial
validity
##elin
workforce
knuckles
downward
blackness
sidekick
##genic
##nko
segregation
billing
translating
governance
##ratic
##ople
publications
markers
smirk
##ques
ely
enforced
indirectly
##oned
escalated
dismissal
##lander
##ango
cinematic
##elling
amc
##gation
academics
weir
vhs
disagreement
backdrop
hewitt
establishing
thicker
commons
jarrett
##weather
repetitive
##ths
securely
scarred
##nessy
acquisition
correspond
intermediate
mgm
mcgregor
##cycle
derived
opted
skyline
##games
vocals
seasonal
respectively
externally
spd
266
suffix
##coe
valiant
beams
hunts
sibling
solicitor
bearded
##oes
ignition
satellites
##iman
faye
motif
disciples
exceed
systematically
dipping
##vana
hostility
##rsten
##arable
plantation
hasty
faust
beethoven
strapped
potent
olsen
collin
develops
baghdad
marguerite
harmon
dali
oasis
##nted
leigh
sheikh
jarvis
astoria
inflicted
braun
dialect
bending
##dding
creamy
marrow
kangaroo
boyle
padre
edwin
wyoming
weeds
competitors
interfered
rattled
jewellery
habitat
elves
##hila
jamal
fueled
saddam
pacing
stabilize
##uding
maestro
rubble
regarded
georg
##bau
festivities
##aling
alfredo
staircase
earthly
trooper
advertisement
##mmon
##nay
##ssel
navigator
##inations
muster
experimental
decree
denmark
jericho
cabaret
##coll
cerebral
##piration
lasers
machinery
##mere
grotesque
collectors
enhancement
hospitalized
##lary
##dicated
mecca
vowed
##yme
ambitions
##iom
beak
cdc
compensate
rana
##zio
##ipes
##nova
scots
##jn
##ocating
overhaul
sensing
goodwin
submissions
aiding
berger
129
masculine
fiery
wits
richardson
##rath
berth
warmed
treacherous
kumar
festivals
winding
guantanamo
examining
toyota
acute
##osed
cylinder
heller
indicating
lukas
cardiac
spinal
echoes
fashionable
nationality
renaissance
seasoned
telegraph
mythology
pledged
zee
performers
taboo
admissions
indoor
boarded
garfield
##fine
##iary
mla
insistence
fda
ottawa
drafting
adulthood
cary
landmark
##ester
##istan
##zier
cranes
##mussen
##ined
##uttered
inflated
adjective
invading
plight
##rrow
estimates
paired
substantive
phillies
broadcasts
imperialism
##53
##berger
##ylus
##itical
totals
reverted
correspondence
shortest
vita
encore
artillery
cartridge
christy
angus
honoured
##zuki
aching
dax
dixie
greasy
uneven
##otte
vial
anchors
armour
ashore
kamal
##ieu
escorted
sonya
irresistible
portraits
upbringing
##bation
baroness
##carriage
tulsa
##yson
wasp
resigning
headmaster
marin
metres
concealed
disturbance
latch
textbooks
wiener
lyle
topping
trance
experiencing
abbas
thereby
contestants
organised
ramirez
axis
clair
##dhi
abundance
porte
equivalence
doorway
##yana
clive
##drick
wilkes
baskets
bollywood
##owski
genetically
hammering
##lates
lacked
phyllis
##raj
##folding
##neer
bianca
telescope
##ication
sighted
##ulf
segments
##zam
amos
musicals
maud
separates
freud
horseback
instrumental
ruse
consultation
marko
defiance
blackberry
atmospheric
clubhouse
johan
slamming
drilling
deacon
cavalry
fulfilling
sphere
ledger
uniting
pantry
slater
##lah
tallest
prague
malaysia
derivative
sprayed
witnessing
##mento
coloured
pearson
eliza
##hani
##tius
citation
abundant
watts
##ament
20s
##egan
knots
orderly
mariana
contracted
loch
ingredient
##chers
gaunt
thereafter
tides
apron
demonic
differing
1100
destroyer
##sell
continuity
scrubbed
elastic
##izations
tory
hygiene
beige
##pins
260
convoy
bundles
zoning
indicative
muddy
hawaiian
disagreed
emergencies
##tma
sinks
maru
smeared
flutter
upwards
pitchfork
jaws
likelihood
strait
##itia
frantic
catalyst
transactions
conner
intimacy
##lts
##anda
lavish
revolver
luigi
benevolent
terminus
2002
varsity
idols
publishers
demonstrated
##nched
concord
##vered
bose
fcc
parasite
puzzled
ontario
contributor
pronunciation
renewable
##ife
##efined
manifesto
majors
restricting
dependence
imagery
nascar
avant
##ropriation
graphs
maroon
glaring
brisk
consolidation
cites
apparel
demographics
idf
primetime
campaigned
##tries
playable
humphrey
lancaster
saloon
desmond
triad
unlawful
amulet
##lena
duration
##witz
parasites
##lce
hideout
eventual
horatio
##sei
enlisted
accommodation
plasma
marissa
breached
deposition
exhaustion
bonn
virtues
##yra
pediatric
kramer
aluminum
waved
torres
##ometer
straightened
linen
repairing
transmitter
surplus
manila
bandages
##bler
handkerchief
satisfactory
quantities
supplier
howling
ville
weiss
medallion
monastery
schooling
##tance
##nging
ethel
##aria
darryl
onwards
eccentric
weighed
##hopper
contraction
lund
paulo
##lga
doubted
motors
##color
posture
##dock
activation
journals
gareth
assistants
hormones
squire
kwan
informing
stripping
schwartz
valet
##rata
restrain
nave
bleak
slump
incentives
pleasures
##firmed
shrinking
courthouse
##hiro
izzy
succession
beads
catastrophic
##rank
valve
inventor
provision
##rnet
addison
circuits
occult
consulted
quilt
##otti
folly
##anal
##cratic
defiant
temporal
facilitate
pumps
fitzgerald
marianne
promotions
undergoing
surpassed
honourable
measurements
roxy
pavement
torches
mathews
##reen
##scan
wills
displaced
endangered
commitments
##roup
cathedral
intrusion
flank
drying
airplanes
absorb
procession
stretches
##venting
reaper
canteen
vomiting
troop
samson
rooney
##sop
##hala
##lide
333
desirable
sensory
stung
##oic
universally
##nosis
##toy
##atin
princeton
oils
builders
recreated
orthodox
westchester
orion
stained
hemisphere
preschool
warlock
curved
converse
##pathic
commissions
ghana
odin
hoover
stephan
decreased
divers
floated
edison
indies
finalist
430
ethnicity
urging
gradient
yukon
somalia
##lke
coca
mariners
wellness
favorable
glued
recipients
##resses
210
positioning
##holder
mechanisms
peaked
forks
330
condemnation
510
antics
##graphy
purdue
secession
narcotics
grunt
josie
warsaw
tongues
cecilia
robes
commandant
wanda
chord
barbarians
rossi
territories
##plane
theatrical
uncanny
bulletin
seeming
dwelling
starvation
##kor
canary
accounted
##stis
##tures
rocker
watering
abbot
##hima
hallmark
##eman
##hong
rehearsals
admiring
birmingham
135
favourites
buenos
despised
ursula
wonderland
illustrate
##mony
bloc
gulp
pasha
burma
clarified
expects
induce
plaster
hesitant
delegation
vane
ritchie
lowe
malice
prophets
##ield
hangar
epstein
convictions
##gol
persuasion
illusions
garrison
impaired
108
grasping
leach
vortex
afterlife
confiscated
reunite
sweetness
seamus
upward
plumbing
mediterranean
thornton
stares
##tral
tanker
mri
ems
##hae
##missive
nominations
koreans
kappa
360
sikh
ferris
##folk
fielding
yvonne
ledge
##chman
##nian
operators
##rella
##sler
##pired
griffith
##holding
plank
lending
##sche
seizing
##meo
mckay
celeste
tracey
disciplined
dangling
persistence
sandals
greta
##nca
rounding
moisture
howie
monarch
softly
fragment
##kko
bien
sped
carts
agitated
nightingale
##eves
insides
cinematography
stimulus
waterfall
##hua
##lind
seekers
bazaar
goodman
flair
robotics
tangible
hays
##ety
ukrainian
##tino
penetrate
##ctable
dominance
windmill
1999
##enas
mustang
colourful
##beck
##pps
vertically
penetration
##iction
interval
byrd
referee
contention
agriculture
aquarium
achieving
defaulted
accessory
clans
israelis
##lone
##koto
manly
relocate
fishermen
fulfillment
considerably
insects
mirrored
portrayal
##cken
honduras
emilia
onstage
##lman
##vani
freeing
coli
fay
peaks
##dity
providence
juniors
pristine
##aq
dazed
strengths
##usly
gonzaga
jacqueline
commentators
sirius
##lating
graders
thump
alignment
merging
amplifier
irving
enthusiast
encounters
ballroom
demonstrating
navarro
varying
catalogue
plush
##ivism
duet
luxurious
125
orioles
labeling
leafs
archived
inverse
excerpt
remastered
streamed
hugely
sao
##bino
reconciliation
anguish
profoundly
delegates
coordination
levy
laurent
resisted
discoveries
cooperative
aziz
spiked
bruise
surfer
irina
lavender
##bha
incense
##wari
regretted
repealed
malibu
sobs
##sfield
fairies
nearer
ruiz
sava
arthritis
##ibility
expand
nuns
pinched
rejoin
##gum
efficiently
##lto
hilda
ewing
livestock
fishes
beatrice
inventions
##rries
uprising
##laus
##tad
specimen
##grant
handicap
##phon
swirl
##lster
aroused
buddhist
##dley
vicinity
consulate
inherent
merchants
rigorous
melvin
##mani
enterprises
vulcan
fable
scripture
somme
evenings
constellation
strips
rufus
qing
vargas
organisation
hoffman
##chev
catalina
##croft
##nai
fleeting
pegasus
elevators
frown
suzuki
##pole
infirmary
curls
openings
skyscraper
msc
##hunter
trajectory
particle
##vera
paralysis
manson
marlene
teamed
settles
buckley
confinement
homage
##vira
stacey
docking
jian
archaic
justine
formidable
abruptly
typhoon
prestigious
reforms
mortality
towed
tiles
shriek
otis
abbey
joked
maids
powerhouse
shredded
walled
chavez
marries
cuckoo
threaded
##tated
aspen
caravan
preoccupied
acknowledges
conquest
jolt
##ario
##lang
scholarships
##ruff
##arian
relied
garner
17th
undead
guiding
rumored
jimi
lucrative
rounded
##gang
pods
independents
whispered
micah
fleming
simplified
eduardo
booming
soothe
reproductive
pathway
households
auditions
emphasize
##lices
biography
##chemist
##aina
filmmakers
baptist
##cule
conjecture
preservation
steamed
bureaucracy
reconcile
proficient
regulate
alexandria
fein
commando
overlooking
affinity
boosted
##rgan
##hoff
inflammatory
median
ensemble
##bled
emptied
baylor
##ldon
##erence
participant
##fast
entertainer
technological
blending
calculating
swayed
paso
brasil
negatively
emerged
scaled
taxation
campuses
bruins
influences
newscast
reuters
dail
curated
documentaries
inline
pharmaceutical
daly
rested
sheen
greenhouse
conservation
hiroshi
roaring
paxton
wholly
bolton
##urne
##inates
coven
marched
##inkles
crater
##ifer
crowley
safeguard
thorne
imitation
margot
militant
courtyard
tackled
##sian
mirage
123
identities
ashton
fingertips
##izzly
cliffs
##sworth
mikhail
##baum
snowy
roberta
rao
scriptures
##tner
##bana
inquisition
lombard
opium
angelica
romanian
elbows
##nam
striped
##hammer
commuter
exiled
rainforest
titus
##lby
circulation
duffy
predatory
skipper
jaime
carolyn
bangalore
270
wholesale
stumbling
renowned
mound
distances
delgado
obligatory
shelters
hiatus
volatile
##mori
cheung
barre
##rden
##ouring
ulysses
rift
##sack
stimulating
yuan
ked
soaring
knitting
formally
midway
sterile
gretchen
armand
##lich
flashed
secrecy
embark
piracy
##powered
agreements
stems
ernst
##eke
compliance
cages
imposing
swiped
eliot
##rde
lorraine
##christ
leukemia
narrowed
rites
firefighters
amin
felicity
jeremiah
firearm
guatemala
##rocity
stresses
skirts
jurassic
conjunction
lina
werner
waived
feral
emerson
marjorie
sensual
##orro
merger
##holders
##fers
tenderness
oriental
aiden
##zumi
proceedings
stepmother
##illy
cleavage
humid
schneider
moderately
elisa
##arth
velocity
barker
##tock
harrow
friedman
sovereignty
peeled
sorcerer
##hler
##amine
##ulent
##nard
##yad
##iam
pleading
##wara
lafayette
raleigh
robertson
bribery
barrage
cords
decreasing
choreography
##riding
##kla
##itation
introduces
##sation
magna
##lard
monterey
conception
##bush
styled
wrestlers
declines
qualification
pubs
mutants
originated
##bright
##mons
loosely
autonomy
confessions
noticeably
organizers
venues
positioned
regulated
grips
proclaimed
numerical
resin
stanza
remainder
awkwardly
apocalyptic
fuels
reggae
hornets
bjp
elector
ahl
rapids
rfc
numbering
##ginal
##llis
aroma
renegade
innate
withdrawn
rani
captains
enchanted
mayhem
progressed
squeezing
observatory
aspiring
##kari
dormant
confederate
systematic
fraser
scented
mercenary
##graphs
friction
actresses
expressed
mayfield
vacant
rouse
warlord
glare
negligence
canoe
lured
lodging
museums
exotic
michelangelo
agatha
camped
proportions
coil
sax
ricardo
30th
##cz
restraint
##bina
##bula
chefs
graceful
astrid
midday
crossroads
sweeps
sven
##vac
##river
##ilis
continental
##plin
centralized
tangent
matilda
##raph
##rza
provisions
ultrasound
governing
##mada
9th
morrow
pornography
1300
surroundings
##vina
muriel
fellowship
macau
arranging
calmed
flores
##aar
brighton
##esthesia
demolished
junction
zachary
greenwich
amateurs
strengthening
bengali
greer
capita
shang
##ello
silky
continuation
zhao
ventura
anarchy
m1
##vita
##aneous
severity
cristina
awoke
stockton
dispatched
healer
restraining
##lver
prescribed
gunfire
fidelity
emery
##kker
stryker
sturdy
recipient
playful
harding
ventures
finer
##icio
##laze
punjabi
pedestal
showered
##yoshi
nakamura
lear
defendants
hailey
redding
illicit
revisions
antarctica
isil
nord
halted
11th
##dah
saunders
spices
folds
multitude
beaumont
tribune
embraced
##nator
gould
ornaments
trinity
marital
rosy
##egorical
subtly
calming
swam
##year
##mbling
agra
lingering
elusive
##gman
markings
visionary
melee
##ghi
mural
honorary
whitman
intercepted
rowe
clinging
gallons
##gence
calculation
auditorium
carnage
evolutionary
icc
stationary
buchanan
elevation
guido
outburst
170
galley
constitutes
##omic
supplement
pounded
informal
squads
orphaned
novelist
advocated
##enberg
productions
910
distributor
leans
pleasantly
##film
looming
stadiums
orchestrated
##lowe
myles
occurring
boise
c2
overlapping
depiction
investigates
proportional
legislature
aesthetics
protagonist
theorist
multicultural
structured
polled
implementations
unreleased
##music
genres
255
talbot
liaison
empowered
reef
physicist
mineral
ribbons
horace
##iano
coincidentally
tsar
lucia
genetics
hubert
kaplan
ezekiel
##station
yiddish
reformed
insulin
cremated
monique
##chia
longed
##hita
savannah
##brate
secretive
##zhi
mussolini
obedience
territorial
cooled
manchu
pianist
highland
communicated
frenchman
##rland
plaque
revived
##lizer
owls
repetition
##kos
termination
eagerly
##gano
jonny
specializes
##kou
##jana
pavel
lucille
candace
gillian
ramos
abdomen
##fusion
cullen
farrell
##inda
##mian
seizures
marcos
deposits
garde
ambrose
##ucible
##gnant
retribution
clutching
recycled
##acing
presumed
oslo
##bah
tamara
##hman
tsunami
stirred
sharma
plaintiff
booths
heinrich
##zawa
fray
youthful
glover
##polis
residency
departments
##falls
census
stalked
blushing
##hawk
newport
rhode
##minate
staples
andres
##itan
quadrant
##iard
shaggy
mystical
felicia
rosalie
subjected
lennon
reopened
stamped
tremor
chestnut
swiftly
khalid
lazarus
supplying
retrieved
dimitri
nara
convertible
stench
labelled
pilgrimage
hades
glasgow
##cic
hungarian
winchester
enjoyment
cade
averages
timetable
inferno
kristen
1984
##ishment
lair
mutation
recreational
lunar
mantle
drenched
dominion
##utation
cues
##oured
chamberlain
nielsen
costello
##zos
beheaded
carole
##urer
imprint
alfa
incorporate
##roving
intending
plotted
toxin
christi
adaptation
nylon
##gawa
angrily
sellers
rattling
chandra
duane
undergo
##hered
cubic
##ffen
healy
possessive
reeling
judiciary
##hdi
allocation
##hiff
attributed
##rano
sabres
##lana
##agh
shores
credited
scrambling
sparked
##owe
floral
stephens
uniquely
transitional
realities
##dation
shareholders
coarse
##borne
conceptual
accountants
racks
vines
wilder
##minating
##rgeon
##rchy
unison
runes
enforcing
persecuted
umpire
springsteen
specification
hartford
##edd
bengals
internationally
tbs
headlining
globalization
selects
conserve
dune
writings
endeavor
metropolitan
##fles
lullaby
cartridges
diaries
##dded
brigadier
backside
clipped
oaks
nightfall
frontal
antony
16th
residue
busiest
outpost
concentrating
grimes
victorian
alexandra
##hiti
colbert
dubois
liza
trenches
barley
keel
tweed
unauthorized
##hya
vinnie
yearbook
##ruck
tents
whimper
inhabited
##llas
steadily
139
quebec
windsor
passions
olga
entrusted
rudd
lennox
graduates
leveled
annabelle
turmoil
mandarin
steaming
surfaces
elegance
budapest
marcia
pottery
conditioned
jameson
ceasefire
baptism
csi
constitute
##manship
incarcerated
##nzo
flopped
obituary
marseille
pouch
lifeless
##tility
consul
sociology
##sef
stanton
##glers
##oder
afternoons
##idon
##ogo
hounds
barak
concentrated
suspiciously
nichols
dickens
sawyer
volvo
routines
josephine
##ente
concessions
cockpit
##ovich
##oise
triumphant
surrendered
##pour
heroism
eyeing
cramped
sabbath
bottled
byrne
weaver
1800
detachment
plateau
salim
stocked
troupe
roma
satin
sumo
patton
extravagant
hamburg
momentarily
spartan
mutiny
romania
##gold
##bala
dodd
progressing
ames
##walker
##gible
marley
distraught
belgian
lillian
##aker
m2
litigation
financed
della
leroy
capped
oversized
patel
carriers
##rrell
arte
mortals
inhabitants
josef
nebula
##eza
sudan
garry
entities
behavioral
reflections
likeness
bursts
noun
aspirations
curate
determining
labyrinth
serbian
##eil
disbelief
karim
##logical
##uze
wherein
intervals
banners
maui
armenian
histories
promoter
devoid
batting
##jad
entourage
myrtle
hubbard
roundabout
dramas
burgundy
greeks
mundane
##anto
eastwood
eisenhower
finalized
mandates
##yal
programmes
royalties
##gated
##rigue
facade
##strom
hailed
555
fiat
menacing
blended
intervened
##yed
culturally
geoff
railing
222
370
continuum
empirical
outlines
monmouth
breeds
giggles
##roid
amtrak
sufficiently
souza
monumental
##ately
familiarity
apex
2015
##typical
constraints
sigma
substantially
additions
shelton
portrayed
reminiscent
prevailing
empowerment
semantic
interceptions
slated
notably
iteration
newsweek
restrictive
francais
rodrigo
##roud
rustic
bearer
insistent
disposition
forests
newcomer
godfrey
##ssler
devout
leaps
browne
dams
duly
2010
tribunal
grover
reuben
sanjay
##lars
swami
parry
lyon
gorge
tightening
centimeters
vinci
##47
##jos
genome
parting
contests
exhibits
siberia
##sz
glamour
surfaced
lucien
emmett
annette
beginnings
preserves
##ailing
furnace
limousine
morales
lima
manpower
juno
weber
caldwell
adler
rotating
olivier
odyssey
##ules
gregor
liberated
dusk
cannons
trainers
jody
##unes
adhere
##sville
trainee
enrolled
penitentiary
dowry
supplements
outlined
##uve
phelps
zheng
tobias
biking
enduring
neptune
resurrected
provinces
##etz
classification
wiring
112
##keepers
##held
natalia
atlas
births
mammoth
##gnan
##oked
cascade
hendricks
georgetown
##unced
skinner
terrain
##trom
analogue
jett
sweeney
petals
erika
##ffie
##trix
bosnia
prosperous
2013
monitored
stunts
mcguire
cholera
disrupted
parsons
crates
educator
repression
algeria
gladys
##lett
mercenaries
narayan
engraved
incorporated
subordinate
boulevard
##kura
crowned
municipal
squared
##jas
emptiness
stormy
prized
stepfather
diminished
climax
barbarian
alleging
##eki
comedies
tremble
fiercely
barrow
wrinkled
##udes
nocturnal
argent
negotiated
teased
tormented
workings
jaguar
equations
memoirs
##ogen
commonwealth
##hesive
swung
gaston
ensures
##ndon
withdrew
docked
##mare
117
landon
##sko
##rance
affiliated
consultants
martyrs
##hort
protested
screened
##cats
malaria
tensions
macarthur
blazers
nutritional
##adia
sloan
obeyed
moods
picket
26th
bourne
greyhound
residential
coronation
synchronized
lark
strauss
stokes
albuquerque
assigns
lineage
##mata
hilly
sears
ragged
##hof
107
cylinders
bray
edinburgh
portray
frowned
atari
##naut
##sberg
derivatives
grouping
irregularities
fey
disasters
anglo
##urus
digitally
divides
demeanor
##erry
robotic
staunch
audiences
illustrated
##saurus
##tops
abbreviation
##phic
##ettes
820
pinnacle
chattanooga
regimes
calgary
economists
versatile
##culus
croix
comedic
1900
controversies
clinched
extracts
jaguars
610
iec
mendoza
##evich
gunmen
celestial
##nium
##cea
ambushed
sherwood
##nath
infringement
mouthful
handgun
plainly
365
##jal
chaplain
colossal
augustus
alvarez
##guchi
##tow
commotion
maximus
prefect
cedar
rigid
aviv
narrows
odor
chemist
malley
##geny
joaquin
theoretical
carver
sciences
psalm
vito
enzo
##athan
##arding
plains
blooded
##rrier
##tained
specifications
##jali
demonstrations
freighter
privy
expired
neurological
fenton
sufi
##swell
emilio
distinctly
invasive
cummings
brodie
neatly
##acle
stampede
blindness
alexei
bermuda
routed
melancholy
crusaders
giovanni
##mona
interpreting
webber
thud
##rsk
louisa
worshipped
notions
kahn
philips
##athic
sienna
exploding
screenings
##vius
unexpectedly
winery
skulls
remarried
glider
slender
gilles
cafes
##yam
acquaintances
##thesis
regained
cadets
circulating
medina
##anza
cartwright
wharf
##beau
lilith
harvesting
emir
internment
##havan
trolley
skye
sinclair
benefited
callahan
fulton
##ritan
plagued
celine
bends
23rd
exceeds
2012
madeline
vineyard
##lani
riverside
attendants
acquisitions
bodily
inference
##landa
femme
fiesta
##lmer
giggling
jerking
stimulate
spotting
hauled
##evic
dinah
packard
collects
reeves
logistics
plastics
kelsey
compton
unconventional
deprivation
##court
pigment
moroccan
advises
##yde
specialists
rankin
shiver
infants
nobles
prospective
outspoken
##lson
mayors
cheerleading
uttered
skeletons
evaluating
slant
disciplinary
fledged
cipher
surrounds
##rations
patrons
pamphlet
serbia
waterfront
bain
settlers
tended
rations
archery
lange
heiress
constrained
thirds
preceded
unnamed
ley
departing
looting
opaque
rebirth
muzzle
maguire
authoritative
pedestrians
kristina
bowler
annually
##ulus
##dates
debuts
##etto
guise
##utus
infectious
##utz
##rling
sheltered
zimmerman
carving
wolfgang
pseudonym
enroll
rutherford
transforming
shortened
leases
##hmi
proprietor
resorts
stroking
phases
longevity
succeeds
##jean
rushes
economies
enrollment
bulky
##edging
##foil
##kled
bodied
signaling
tome
##chrome
interchange
modelling
arenas
yanked
parkway
2017
122
##cens
clusters
recalls
localized
situ
implements
tatiana
##27
cyclists
##atal
intrinsic
broadly
partnerships
##cb
dq
averaged
naacp
reviewers
730
contiguous
explosions
kolkata
##biotic
##rini
nodding
harshly
dialed
##sport
livelihood
camilla
commanded
fingered
juniper
##oza
##ocation
intersect
156
synonymous
kathryn
zhou
lister
jocelyn
calves
vidal
##ysis
accordance
doses
nikolai
stint
##eim
rockwell
merrill
overcame
##flies
seventy
orient
olaf
##rton
reviewer
perrin
nineteen
awaited
yorkshire
hesitated
mohammad
##inking
arturo
newfound
glanced
soto
##quist
haji
implicated
imports
unnoticed
mackenzie
astonished
similarity
flanders
intellectuals
combining
##haven
promoters
bernstein
sykes
143
exterior
recreation
blanca
catalan
lucie
silas
songwriter
introductions
##minated
harrington
##ngo
sheng
forceful
##cliff
stature
bathed
peeking
remnants
outskirts
##shida
prairie
thorns
930
##dder
##logies
waterloo
adventurous
macbeth
stronghold
##nery
emmanuel
silvia
kristin
mohan
molecular
hokkaido
tombstone
wept
expressing
saturated
asher
glacier
endurance
bedside
arises
initiating
##listic
##nostic
mckenzie
locating
22nd
##bolt
##mack
recital
transmitted
victorious
capcom
sprung
##weiler
##ahl
romero
awakened
##aman
calculus
guillaume
avenues
fangs
archbishop
ponytail
solemn
promotional
detrimental
mahal
intimately
situated
##eche
##dial
withdrawing
containment
realism
exemption
ultimatum
unharmed
battleship
jace
dismay
communal
peninsula
troopers
salts
battered
##koff
guo
sima
##pment
kari
mozart
lehigh
paramount
136
tempered
burnett
##ntation
regulars
leone
zimbabwe
briefs
dictated
decimal
borne
##cton
bestowed
danes
crazed
spacecraft
inclination
##aldi
davies
faction
225
gibbons
echoing
106
reassure
##ales
##litz
croatia
projections
buena
porcelain
uniformed
madeleine
indifference
subsidy
fraternity
arithmetic
settlements
##anor
unsuccessfully
##outh
##frid
##eia
##iens
populations
pensions
swallowing
tilted
monetary
civilizations
vols
occurrence
##meral
pivotal
taunting
tailored
statesman
marriott
##nage
keystone
dimensional
##neo
downed
voiced
famously
##hism
royals
alleviate
brackets
charismatic
disputed
styling
contributors
unveiled
sequences
prequel
cyclist
musically
crafted
inception
ineffective
##sonic
surgeons
suites
childbirth
plastered
brood
donaldson
##ntes
##zai
johannesburg
##udence
bicycles
orchard
##tres
cleopatra
crescent
amended
astronauts
descended
##eiro
paced
maneuvers
unofficially
benji
##fighting
disagreements
unmarried
salvatore
##iente
109
103
calcutta
aires
acre
##nese
##dry
songwriters
chuckles
##clops
collier
rollins
rugged
##lion
ivanov
judah
maverick
taiwanese
castillo
martina
bethlehem
copa
brianna
mccall
reflective
spirituality
ripple
growl
benches
okinawa
mccann
##yce
gupta
lebanese
##aday
alain
##ators
billed
barracks
belmont
marius
henrik
##icient
chennai
hiroshima
anastasia
pious
commune
enrique
symposium
inhabit
melville
fractures
helene
pistols
kerala
##erly
hartman
bethany
rupert
consequently
fatalities
stricken
skater
tandem
attracting
##agawa
fischer
pendant
wakefield
scraped
experimenting
##zman
disorders
farmhouse
##haya
carousel
cheyenne
##iana
steiner
pleaded
unaffected
##rani
titanium
##lux
eureka
frey
aubrey
budgets
gustav
cunningham
##itaire
tracing
santana
##rrie
distressed
sporadic
consisted
##pheus
##sham
tangle
##tok
committees
##drum
streaks
##cross
dyed
moreno
bonded
kaufman
hancock
seaman
gardening
disabilities
hooper
underwood
valle
weston
stables
canine
nunez
prostate
appliances
##arus
60s
bulldog
immaculate
chronicle
destinations
##lights
groan
bile
illnesses
hurdle
sabine
xiang
guerrilla
sponsoring
criterion
continents
tempest
macdonald
gaines
levine
agile
miniature
traverse
perpetrators
outward
nectar
confronting
niagara
regan
##gration
##mics
groin
traders
##tage
bedrooms
bram
grains
breathless
bautista
supervision
rulers
stimulation
karachi
##iere
flagship
integral
geographic
##cular
denis
quasi
torah
##orne
plucked
frantically
quartet
highways
230
accompanying
##kia
pertaining
bosnian
granite
suffolk
informs
fairfax
##iad
##nous
##nged
attache
watered
crafts
fertility
kurdish
educating
persisted
##rbin
cambodia
##aer
dungeons
diverted
horizons
classify
valor
libyan
##rage
orbiting
##phs
seeded
redwood
armchair
eligibility
retailers
touchdowns
modeled
hazy
headlights
storylines
husky
dubbed
succeeding
competence
malls
decidedly
##henko
synagogue
##mable
bergen
131
classrooms
##ractive
##opsis
##tsa
striker
surveys
hendrix
perspectives
sharif
extremes
##omics
aggregate
measurement
antagonist
340
##ythe
synonym
mouthed
vanderbilt
furiously
uae
##hony
catholicism
societal
collaborative
unsigned
evaluated
redistribution
lobe
##stered
##kyu
durham
bartlett
carlisle
federico
devised
alvaro
backseat
lucius
possesses
bids
##ieri
adelaide
##uously
visitation
cabinets
sulfur
##hane
ceremonies
hermit
everett
postage
honolulu
mating
luisa
colton
castles
dorian
aviation
pietro
composure
natal
##hardt
bedford
depleted
parc
nicknamed
chaplin
receptionist
##neas
##ckey
bois
ibrahim
##49
137
lizards
yusuf
tully
psychologists
##lais
eighty
connell
revolutionaries
ventilation
calcium
digger
aston
decreases
gaius
reginald
oleg
applicants
woodward
wilhelm
dempsey
fascination
quartz
supervise
expressions
chilled
nasal
##ingham
carmine
particles
passages
##chon
congregation
##zog
golfer
pisa
1997
wreath
complexion
##tson
maternal
##yya
bowing
markham
##icide
alejandro
echoed
resembling
##zuka
retained
revered
judo
mischievous
volcanic
clover
jens
hussain
turing
bengal
triangles
diagrams
inspected
projectile
##dust
##leaf
qualifying
resented
photographic
##xide
huey
orson
horne
delaney
corrections
figurative
blacksmith
monsoon
abrams
takeoff
reinstated
##ailed
turbulent
gonzalez
pines
charcoal
restructuring
3a
reece
999
##issa
airborne
upheld
sanford
appendix
seduction
##ulu
##sibility
collaborating
501
interacting
johnnie
##sund
turbulence
swimmer
airfield
rafe
tentacles
delegate
geese
##inas
wielding
brewster
##connected
enlarged
priscilla
filly
zeta
obesity
tensed
##inen
##aire
##eum
granting
dukes
bonuses
therapeutic
nagar
impromptu
smallpox
argentine
##culture
##bane
lucinda
medications
##valent
##eka
ascension
dalai
cromwell
lyrical
##pina
judgments
##rner
hitchcock
##iation
bulgarian
kelley
##imum
groans
##rdan
rohan
ernesto
vanguard
##rissa
youths
##oles
gothic
prematurely
vested
deficiency
organism
conversions
suzy
abrupt
##wny
clarkson
cramer
liquids
scuba
lansing
tobin
coordinating
embodied
weakened
##oton
perceptions
reservoir
##isen
entrepreneurship
spectator
momentary
degradation
##enes
progressively
basha
bacterial
formulas
215
bonnet
obtaining
sleek
tehran
heresy
merritt
leto
clashes
##gau
undisclosed
##arts
descending
chronological
##uration
1700
twenties
athletics
radically
televised
optics
lexington
guitars
alternately
swansea
philanthropist
valuation
sharply
debuted
counterpart
charters
complimented
reactive
regulatory
c1
sidewalks
teaming
prolific
fordham
auckland
contested
editions
inducing
padres
diaspora
djs
wnba
nissan
siemens
vh1
tyrone
commissioned
inscription
consortium
stallion
pronouns
stabilized
newcomers
swallows
blanco
vamp
daze
arjun
ile
##dome
ninety
initiation
contradictory
substances
transmitting
sheffield
203
##dridge
siding
moniker
##nine
lateral
accordion
becker
consolidate
fae
cello
rods
corridors
edmond
serra
nobility
langley
garments
consciously
##vish
tumbling
##gara
sinatra
novo
guthrie
marlon
lucian
##ndra
##rao
forearm
canton
##nberg
##rgy
##rdon
everest
clancy
handel
##rium
##rued
architectural
##raya
##osphere
objectives
methane
##naire
holiness
hagen
orbital
populace
royale
johann
chemotherapy
sylvie
##kota
evenly
alcoholism
eyelids
crusader
hermes
##grapher
##shire
colonies
baseline
##hue
neighboring
fertile
executions
antiques
hauling
##uary
chao
galleries
##rera
##bard
diameter
##pathy
##sons
leaned
dominates
chihuahua
angered
linebacker
weaving
shimmering
journeys
##yck
contamination
##gative
playwright
disclosed
corpus
lodged
starred
mythical
synthetic
mcqueen
leland
##urities
influencing
retreated
throbbing
##xley
##cans
winslow
antiquities
holster
prolonged
shareholder
##rative
wasps
lambda
boating
luz
norfolk
sewage
nietzsche
warwick
sylvester
##pia
whales
##rral
##tite
mcdowell
##vating
lacrosse
lanterns
##runa
adventurer
keepers
auf
salazar
meanings
northbound
coupled
ashe
autobiography
metz
elemental
sheppard
kruger
optic
cavern
##anov
eminent
gasps
eyre
commodore
bulbs
jagged
devastation
leopold
##tyn
graded
designation
##borough
raoul
##osis
##ssen
##ading
wagons
liga
##yman
mabel
prohibit
pathology
stony
thinkers
holdings
hearth
zulu
##eyer
airways
arcs
blockade
lagos
hepburn
##heimer
renovation
silhouette
rubs
1970
galaxies
blackburn
##bria
essex
##lance
padded
manifestation
affluent
casualty
bastion
letterman
employs
retention
dahl
##erine
deity
documenting
brittle
2014
##mbled
frankfurt
offshore
rockies
strained
wellesley
verbs
benefactor
textures
##arded
lanka
##hana
rockefeller
##oons
sphinx
calder
##erian
1a
etched
##pta
simultaneous
precedence
##rger
shipments
##basket
##eering
dissertation
2a
taft
540
adequately
theatres
##grounds
##erin
291
taipei
pendulum
drilled
unearthed
deutsche
##lithic
##hips
capitals
standardized
humanities
causal
siam
legged
iona
grins
boeing
##astic
inducted
premiered
bayern
statewide
anaheim
prevalent
nhs
enthusiasts
rms
rosario
hospice
mosaic
articulated
penetrated
shivering
guitarist
fates
burgess
chopra
coughed
exposing
rhys
methodology
##stellar
milky
##tov
barlow
donnelly
##rter
davidson
cemeteries
ferocious
straps
##glia
disciple
missionaries
hurried
fernandez
customary
tata
straightening
wavelength
rallied
##kling
wynn
strands
scraping
viceroy
cavity
illustrious
olympus
##miya
nwa
530
ashok
chong
vishnu
##chuk
tract
warehouses
124
ambient
stifled
cinder
talon
##dden
potassium
specimens
congo
binoculars
dazzling
##mmel
xander
architects
acton
archers
rudder
paved
28th
apparatus
preferring
hinges
cornwall
##lka
##dman
princes
gunnar
endowment
westwood
whitehead
sloane
injunction
daggers
vibration
##ricted
considerations
casablanca
distinctive
crouch
refinery
bahamas
ravine
agricultural
citrus
gunther
pinto
##glio
##urance
indigo
##ilation
heightened
arsenic
##kei
primal
engages
circled
lectured
detectors
minh
commanders
marquez
automobile
talmud
##bilis
competitions
fated
giro
blooms
manfred
mathias
##ndt
judd
infantry
grossed
vibrations
boardwalk
tibet
##etta
##lving
jimmie
deviation
helsinki
fetal
##thes
inland
##teacher
embryo
asserting
johanna
bulgaria
1992
leaping
chiang
correctional
##sms
##jak
parades
olson
ballard
mammal
aided
1996
babu
##thed
hemingway
curator
saline
wealthiest
##mah
dashed
paz
innovations
sponsorship
baptized
vii
conspicuous
snails
stormed
nodded
gunpowder
##ography
proclamation
##hawks
hinted
155
congestion
fabian
hymns
##haling
fungus
trombone
metabolism
scarcely
glucose
jennie
successes
##castle
bulldogs
hormone
29th
quiver
algae
davy
##ural
jaya
##oire
chests
felipe
camouflage
hardin
##bella
##channel
##rika
##opers
metropolis
duval
energies
hilt
enamel
camden
mutter
##dus
battled
dupont
jubilee
leicester
jacksonville
grimm
##anu
pasture
bertie
regulators
steered
compressor
poole
reassigned
##combe
effectiveness
springer
accumulated
##eson
naples
infections
jars
geology
footing
confidently
suarez
##meter
invitational
subdued
factions
frederic
generators
notation
convergence
mccartney
empires
##grave
bitterly
thwarted
inverted
##vial
disapproval
seductive
##dorf
organising
romano
exchanges
akron
##bery
muller
counterparts
##cino
consisting
scandinavian
perth
##rgos
clapped
acclaimed
adjustable
chronicles
##pala
governed
bulge
sheds
substitution
##vances
pathways
reigning
ardent
ranging
examines
##riam
radha
##isms
compulsion
partnered
##rlin
##ivist
sequels
utilized
bestseller
4a
ssr
benign
skimmed
everton
lahore
developmental
224
llc
curled
retailer
##pts
bernardino
rune
cleric
interpretations
cones
correlated
conversely
reliance
v6
tottenham
sequential
contexts
reelection
boroughs
hurricanes
aggregator
##ivision
mainline
740
2009
williamson
410
##eased
arose
##dini
mildred
rwanda
embroidery
outlaws
effortlessly
quincy
porto
kelvin
stomped
weaponry
##bour
beech
inspectors
electromagnetic
larson
##odon
apostle
gage
##ishing
nair
serene
darby
bassett
alliances
##oue
patrolling
dmitry
twitching
composing
##amen
tingle
##moor
lettering
##chner
kosovo
totaled
##icz
114
constance
lagoon
feeder
microscope
durga
1990
curiously
procedural
restrained
telecast
cautiously
nighttime
##cles
wrought
collaborator
andrei
bangladesh
degraded
##therapy
exploration
improvised
illustrations
##eers
mendez
etienne
warring
166
##bola
joachim
davenport
petit
##hian
zeppelin
fished
hastily
maldives
##kata
##ifice
##mour
amplified
hazardous
clauses
aggravated
sable
germain
vida
enclosed
zurich
barbed
estranged
quarterly
##nsk
horsemen
unmarked
supplemental
##dong
segregated
##aurus
transporting
terminating
##cini
reptiles
24th
exemplary
harlan
toro
landfill
roadside
lids
annex
wards
macon
jakob
cesare
dormitory
irwin
piled
1989
mansions
ritter
##iani
wartime
narrowly
nepal
privatization
recalling
kamen
drifted
ubiquitous
bargaining
##apes
seminary
loaned
prehistoric
##meyer
finley
strung
rowan
butte
gymnast
deserts
relics
wiley
##inho
ogden
##rrigan
inspecting
holloway
sicily
##mler
##ttering
provisional
solemnly
convinces
165
centres
varied
ethanol
amenities
silvio
##scoe
overseeing
verde
climbs
##bourne
visibly
essen
hoarse
##ulsion
middleton
##erman
##zek
grammatical
emanuel
mcleod
notwithstanding
widen
##eries
401
councillor
tending
##vington
revolutions
auschwitz
creations
kellogg
townsend
osborne
anya
fencing
gaping
leipzig
##masters
##nus
##nology
constituency
nils
focal
ascent
occupying
##enko
keenan
sentinel
vanishing
dharma
##sov
retreating
leased
ballad
ratios
werewolves
ngo
##gong
##oteric
##inski
miner
halves
nitrate
travers
payne
manufactures
seville
152
europa
##tment
guinness
hissing
protestant
##nesian
ethiopian
clutches
cornerstone
seymour
##anial
mariano
marxism
horseshoe
painters
212
comprised
screenwriter
abandonment
britannia
reinforcement
traveller
designate
strife
trapping
chases
metals
obscured
##gata
durable
##puted
dwarfs
glossy
commodities
authored
flinch
mentoring
hedges
superhuman
##lta
nottingham
drains
recognizable
lutheran
preceding
aden
2011
clinics
##alic
valkyrie
arrivals
##zano
##lized
bradshaw
adversary
philosophers
revisited
asserts
immersed
ramps
##roved
rainfall
walkers
overcoming
icelandic
respiratory
##sau
commercially
observers
varieties
cancers
##asurable
runoff
utilizing
138
mcmahon
##taff
312
pueblo
##erie
simulated
compounds
buddhism
bridgeport
homestead
urdu
shapiro
sociological
lauded
assessing
paterson
##oslav
183
bypassed
woodstock
erie
rotated
##tura
receptions
craven
oilers
futuristic
tilting
topical
breakaway
directs
theorists
computation
showcasing
orthodoxy
tariffs
sparse
mendes
airplay
175
inaugurated
atp
championed
collisions
depicts
halifax
sahara
denton
nitrogen
gunner
##yuki
moans
adolescent
mahmoud
economical
##aja
clouded
compensated
anwar
galen
##uez
dissatisfied
bangor
declan
arches
siegfried
forts
rolf
federally
jakarta
philippine
encyclopedia
leonid
benton
##lika
explanations
piccolo
boca
qin
evergreen
dietrich
ducked
convicts
contracting
##qvist
##selle
##rder
envisioned
ringo
undertake
commemorate
##hyl
##eros
payton
yellowstone
##tucket
littered
flaps
petersburg
##rada
housed
##olate
realising
waivers
##lub
mead
escorting
captivity
onset
##vron
##imeter
fossils
peking
differential
breakers
wendell
##gall
serbs
consort
clad
nicaragua
cumulative
collaborators
samoa
##inga
rancho
ceramic
doherty
hillside
arden
reproduction
intricate
arabian
##akh
treaties
deputies
brandt
cherokee
confines
milling
rudolf
kota
myra
cicero
abdullah
##kley
giles
##loh
kitchens
centennial
imaginative
clary
spaniards
welles
1969
expansion
malta
prodigy
gaul
tingling
inward
giorgio
crimea
ventured
omitted
citations
displeasure
entrances
patronage
harlow
aztec
afforded
enrico
##ayan
##tara
watery
##rogated
willem
tenor
##pressive
mustafa
prohibition
vigorously
kilometres
##avia
magnolia
penetrating
wharton
archangel
##laid
egyptians
raju
heartland
##dek
torso
riaa
monarchy
goran
tightened
incarnation
occurrences
daniela
##berto
hermann
##kken
dayton
deteriorating
yokohama
lineman
##oses
weighted
bordeaux
exploring
thierry
vents
anthology
scooped
nicholson
mcgill
##taka
biceps
palaces
mansfield
##ophone
adverse
lauderdale
demonstrators
132
indicators
bayou
##erton
residing
cornelius
1995
woolf
alteration
##llation
118
##cology
wilcox
disperse
governmental
bullock
spaced
perished
monuments
drummond
lowry
##yles
##hett
competed
shivers
recoil
rees
lifespan
##ands
parliamentary
distinctions
##uno
prasad
epilogue
ithaca
condensed
walden
indonesian
grinning
terence
##rified
##rana
foxes
##routed
ecological
illuminating
reluctance
smoothing
moran
##antes
snyder
mcgrath
makeshift
cedric
interlude
gravitational
pearce
##terol
strengthened
##ados
baku
testosterone
##tman
growling
rosenberg
petitions
parasitic
trenton
##eles
philharmonic
carpets
andrey
##chemical
bahrain
bolivia
dawned
ligament
bilateral
##stones
perennial
huddled
hooded
creditors
softer
infused
marlins
##erre
currents
##kushima
##finger
tasked
beverages
authorised
nordic
provincial
finite
##cano
redesigned
kraft
##west
transcription
larkin
##tees
##ifiers
##smith
alberta
strides
##cene
ineligible
vigorous
retains
assimilation
eds
421
detainees
##ishly
resurgence
aperture
uta
##forms
layered
##standing
pennant
omaha
sbs
311
reprint
contributes
appointing
epoch
mandated
generalized
sts
qualifier
cyrillic
##dication
##ciency
electron
giggled
standings
weimar
rebounds
shrill
insertion
rabbis
airbus
categorized
adapting
concurrent
toned
560
elisabeth
priory
##fting
geographically
##abas
artemis
prohibits
##rricular
upton
medicinal
claudio
haas
vacancy
ordained
lithium
##mined
belgrade
gazette
acquitted
##ctors
psychiatry
tyne
fibers
##naud
physicians
sicilian
##quette
venerable
##wich
sentencing
bohemian
##rzy
speculative
recapture
retrospective
priestess
nellie
sindh
dynamo
##iny
markus
gogh
partnering
##dun
ismail
bingham
carmichael
1942
##market
##otto
scents
sanitation
derive
gazing
renal
armory
relaxation
fused
27th
acquiring
atoms
##tangled
descendant
laird
estates
stairwell
unification
susannah
downing
dismantled
reconstruction
nikola
asahi
retracted
##zhou
fielder
134
organisms
siena
alonso
spectators
depicted
beaming
westminster
##cius
sportsman
cyprus
saigon
soviets
leary
templar
congenital
combustion
sutra
##yev
accumulate
ancestral
rehabilitation
gable
460
aimee
rhapsody
##hly
notoriety
##qing
##dora
##athlon
sinai
lakshmi
serb
archaeological
caden
##sford
workshops
##kti
reluctantly
wilfred
lecturer
yielded
##onte
sanskrit
predominantly
signage
##nton
mastery
napoli
salman
faulkner
sculptor
gatherings
palermo
undertaking
tacoma
polk
proponent
hallways
muir
belfast
##ntino
collaborated
shortstop
administered
cantonese
recited
peaking
corvette
##entes
sighing
##linger
disputes
##urized
##chester
##hore
##sdale
militants
konstantin
121
poultry
styx
bosch
##urst
arlington
muttering
flees
trimmed
operas
thematic
readiness
namibia
159
multiplied
laurence
148
breadth
stairway
anticipating
forefront
contractual
sonata
earle
mueller
1994
ferdinand
strategically
disposed
pioneers
##amy
cyclone
appealed
##kali
petite
##dier
exploits
montagu
broadcasters
heaviest
billings
detonated
welch
transient
marche
bergman
172
greenfield
rochelle
hess
##patient
##lho
revolves
haggard
reformer
tatum
matteo
winged
tentative
avon
willard
dissatisfaction
twigs
mobilization
truncated
mammals
##bley
rodents
coyotes
comparative
bewildered
exchanging
comparatively
##houses
narrowing
alternating
myriad
befriended
##itors
shuffling
messengers
seton
##onal
diffuse
patrols
discrete
##ael
sikhs
##awan
twain
amour
revolving
engagements
enclave
efficacy
adaptive
beatty
mastering
tabitha
aforementioned
principals
socrates
flourishing
lyons
evidenced
derelict
reasoned
##breakers
##brick
singled
invasions
nazareth
abolition
##oric
coupe
##icus
vectors
nathaniel
##zell
fictitious
naturalized
emphasizes
skylar
creole
subsequently
plunged
administrations
doctorate
humorous
##hein
portraying
outlawed
thyroid
splashed
viet
continual
calais
whereby
rica
transforms
melodic
streamlined
revenues
genera
broadcaster
franchises
midfield
marketed
haifa
publishes
avila
telecommunications
confronts
ancestry
northwestern
affiliate
winnipeg
astros
rq
gundam
ibn
instructional
770
translators
defunct
338
unspoken
breathed
sizable
##rford
remarked
crawley
##flight
milne
##filtration
rebellious
motionless
auxiliary
adorned
yves
milos
friar
punishments
##rwood
schizophrenia
canals
vibrating
motorcycles
1941
draped
elmer
fatima
sculptures
decorative
heinz
undergraduate
commencing
genevieve
indications
arteries
##hui
robbins
clarissa
breeders
presley
sonar
tunisia
holm
filmmaking
yanking
dwarves
brant
prakash
##raus
sunken
##ctus
vertigo
sedan
gleam
darkly
verona
##lez
235
diagonal
dispersed
biologist
coastline
cultivated
pollock
lexie
##agne
154
draught
livingston
lashed
##chus
ramsay
keating
mathew
##hosis
smyth
nests
attained
cabins
##escu
arroyo
ambiguity
pulpit
cushions
buckled
antarctic
regency
presiding
susceptible
synod
adolph
290
zur
1976
1981
willed
sodium
jillian
rosewood
thames
dover
pharmaceuticals
passageway
predecessors
inexperienced
tuberculosis
pebbles
wreckage
arcadia
southampton
atv
sweetly
upbeat
underwent
1991
sahib
gases
peeling
dmitri
##vez
##stead
syllables
emile
##atory
##gaon
##trick
toxicity
export
840
realises
banjo
benin
oskar
hypnotic
hepatitis
renovated
245
##nami
boasted
malaya
antonia
shattering
##ulum
##tang
meade
gasping
baptiste
25th
elsie
1968
signifies
benoit
georgian
151
footballer
relocated
locus
rashid
moat
etat
##personal
roofs
marino
##kot
##eira
shielding
cortex
canberra
owing
molecules
ripley
##giri
explorer
kabul
dudley
hurling
seismic
polka
rector
##jured
doping
enriched
translucent
weakening
aboriginal
hybrids
clench
##rigues
planners
softened
bearings
forbade
bucharest
winked
##stown
##finder
craftsman
giuseppe
mcbride
housemates
meath
conglomerate
hawthorne
vicente
ganga
demoted
##kian
venezuelan
regent
auditor
attends
##eger
unsuitable
ravaged
substituted
retaining
molina
skirmish
nairobi
newcastle
violins
chromosomes
expo
##olf
quay
ammonia
182
involuntary
monaco
dentistry
##mide
scribe
indefinite
cao
citadel
flung
therese
unbroken
caliphate
##asco
douglass
calhoun
##vian
##feng
marquette
##haus
##igraphy
spartans
devotees
asbestos
nautical
reddy
woven
instinctively
atkinson
clandestine
ict
slumped
conditional
galileo
papyrus
##holm
affiliates
kinship
##stituting
patting
upscale
vigor
slavic
relocating
supervisors
205
pausing
southbound
ebony
saratoga
inhibit
##ogan
hardwood
##nsed
heirs
knoxville
mfa
brisbane
skepticism
codex
groundbreaking
laguna
wolff
tailed
##lham
blinked
islander
710
chords
##logists
wilmington
##wana
##hire
replication
stair
chassis
vocalist
irvine
sprinter
fleetwood
##inian
hinduism
basque
##ods
paving
dorset
contemplated
daytona
254
gasped
maximal
analyses
choreographed
##rization
canucks
sarcastically
prominently
##inton
illustrates
lyricist
dortmund
linguistic
utilization
286
unbeaten
cyclic
constituent
##bund
##economic
incorporating
dhabi
qualifiers
uncomfortably
laureate
bundesliga
armada
nomenclature
textual
elects
264
integer
complied
169
haynes
nucleus
booklet
buckingham
allotted
paces
reconciled
monde
jagger
##abad
remnant
dorsey
padma
proteins
sensations
induction
ordinance
partridge
bolted
edouard
chimneys
stalks
1980
restraints
sampson
flowed
##uron
constabulary
hermitage
unanimously
viii
beetles
##nikov
tapestry
hydraulic
multinational
muffled
discontent
fender
highlands
proton
325
##champ
danube
leapt
counterattack
gripped
influx
tokugawa
##shore
asserted
1966
1972
awarding
##arium
##vino
sacrament
valleys
savanna
bjorn
petroleum
vittorio
##asia
gustavo
##ulla
rosary
gables
panting
beirut
laced
##crest
remington
116
panorama
conqueror
humanoid
faber
##nsen
laude
##ffey
faculties
delilah
trumpets
##scope
crete
bertha
##rians
caressing
gertrude
widening
##lvis
burrows
murmur
antiquity
submerged
saxe
staggered
subsp
animator
##itas
explicit
##vity
lowell
landowners
objected
introductory
##belle
grassy
commendation
##kumar
carriages
constantine
paisley
##relli
johansson
1985
##dberg
clothed
mckenna
##sner
montrose
hurst
astronomy
expanding
##icum
##shima
swaying
##anus
spans
snout
##gny
maddox
asteroids
expanded
##tension
##ardo
arbor
easton
ethiopia
grossing
gravely
paperback
occupational
larsen
waterfalls
gravel
fitzroy
1937
charred
##rgen
armando
arousal
photon
practised
##position
##cina
insurrection
balkan
takahashi
##kova
drumming
##zziness
maia
##strel
shadowy
henrietta
fibre
regaining
190
bowen
hurrying
##thus
1982
multiplication
relocation
alessandro
karel
hyundai
legions
commonplace
belinda
##ttered
reappeared
startling
osman
leung
agitation
shrugged
trailed
pillars
constraint
invariably
cayman
gloucester
repulsed
automotive
petersen
1988
concourse
explodes
vineyards
madras
medley
norse
baseman
whistled
benito
tibetan
berman
subterranean
archibald
dialogues
malaysian
scowl
##vna
christoph
sundance
1936
turbines
escorts
##vres
167
bobbie
kendra
joshi
##rane
lynne
##charged
polymer
turin
##missible
shillings
choral
shamrock
##rvis
characteristic
oldies
capacities
##cey
##going
##raphic
mckinley
##unciation
pulses
##idia
impoverished
simeon
##sphere
##hesis
hague
##dlow
archaeology
##ouk
hackett
##ksha
alistair
heron
##fixed
absorbing
stainless
405
##vary
shortages
##yler
memorabilia
335
immersion
posterior
axes
volley
emergence
##linson
contentious
bubbling
organizational
232
branching
variance
nesting
woodrow
deities
tanned
##isson
albanian
technicians
attractions
folklore
nightstand
anchored
establishments
##icides
##claiming
loyalist
tuba
pamphlets
kinetic
##dron
embroidered
##olar
theorem
auditioned
accelerating
outset
##nsky
representations
brunswick
boasts
advertisements
propped
registrar
reacher
exiles
solos
franciscan
edged
spearheaded
plc
unesco
##nism
##encia
pornographic
gaddafi
symmetry
statutory
isla
##systems
enacted
linguistics
concurrently
managerial
##pani
frazier
##nais
mohamed
##lved
grouped
##ignment
concluding
##aea
##rval
##bant
prevailed
toppled
squinting
penned
eruption
475
bracing
oversaw
##folia
frs
scholarly
estrada
shaded
yamaha
roanoke
tentatively
##jm
assortment
surveyed
875
amendments
sampled
bilingual
pga
incomes
braking
##acion
orton
integrating
noteworthy
##icular
herrera
legislatures
crossbow
konrad
gurney
leaflets
##evsky
wainwright
trinidad
nagasaki
thorpe
cosmopolitan
deposited
hasan
##tler
##mund
honours
persia
acids
ostensibly
leningrad
1987
##cola
submarines
interventions
hooves
ceremonial
aqueduct
clemens
mausoleum
botswana
ortega
wadi
grandmaster
canopy
harald
egan
1986
##stov
1965
presenter
versailles
##brates
securities
blazed
hereditary
##rona
ballast
parisian
vantage
looted
richter
louvre
downwards
hunched
bryn
bowed
mortimer
domingo
kiran
apologetic
##wled
##mora
jurgen
durban
organizes
##dran
borneo
environmentally
enrichment
cobalt
applicant
cannes
calderon
helmut
axle
tierney
braden
##ckman
gorman
##urian
747
swamps
wilkins
moshe
sequencing
ulrich
secluded
##ducted
reputed
guggenheim
divisional
fungi
eased
appropriated
dyer
stinging
methodist
psychedelic
academies
syllable
jerked
chilean
quinlan
##dez
regeneration
kincaid
oman
municipality
##reus
missionary
thirties
reza
bellamy
volkswagen
aviator
converge
##torium
confesses
nagoya
surveyor
outfielder
excerpts
##wley
##lbert
shoreline
instructors
stevenson
racetrack
beverley
guineas
smoothed
gifford
adolescence
treasurer
sino
tensor
philipp
condor
asphalt
jena
astronomers
rowing
yugoslavia
##dium
arya
##inus
dade
dwyer
portals
townspeople
##llum
prototypes
neutrality
smoky
solvent
railroads
somerset
153
snarl
##riated
dissolved
mined
industrialist
termed
inscribed
##jic
ozone
offences
##adt
molten
logistical
quaker
##chua
frowning
normandy
nickelodeon
##llon
circulated
##neil
##gren
bessie
##eft
##orio
##kong
375
classifications
injuring
sexes
##meister
writhing
sarajevo
##nae
##itative
helplessly
episcopal
welding
shenzhen
jimenez
dresden
priesthood
aramaic
##enham
vogel
evangelist
kingsley
employing
conservatory
sniffed
howell
shielded
nostrils
concerto
dripped
dumont
presided
selma
201
eels
##tenberg
##zcz
##loe
milford
cougars
1950
baltic
ridley
novella
gentry
zane
medalist
##ctum
cruises
1993
newtown
spacious
membrane
wince
brightly
kiev
##zquez
snowfall
neutron
augusto
landmarks
31st
lucha
palma
##eville
mazda
##tative
323
finalists
angola
1939
gradual
displacement
shone
##llary
mohawk
##redo
pieter
occupants
populous
tunic
rowland
ignacio
indianapolis
##nent
prominence
##omba
pollen
##lete
147
157
secretariat
dieter
##lund
##sbury
coveted
symmetrical
slicing
lobes
##lese
302
characterized
distributors
madagascar
pasadena
anxiously
baja
consolidated
##jia
315
transformations
rotterdam
##stad
decomposition
presbyterian
knowles
cfa
##enna
##rdes
clerks
ousted
practitioners
##vara
telecom
arterial
##inatory
supermarkets
##grating
nosed
mcnamara
##ooped
dotted
picturesque
fiji
swirling
portsmouth
rna
turret
geographical
cheekbones
veterinary
tyres
hartley
##puri
yeast
ushered
roche
surged
dario
##mering
jurisprudence
wrestled
speculated
thumping
emphasized
1940
infancy
rammed
pitted
equilibrium
enhancing
wildcats
neuroscience
##taken
psalms
featherweight
comprise
hurdles
curling
cinemas
cardiff
##ricting
enfield
usaf
discus
toured
somber
binds
bryson
ymca
remade
remixes
126
rte
##oven
weekdays
batted
weekday
580
prevalence
legislators
reissue
hezbollah
taxa
tq
spp
phased
##twined
topology
bellowed
prc
bolsheviks
incidence
##eux
##dana
thoroughbred
sabre
barns
nasser
sanitary
goalkeeper
mongols
recounted
hodge
slovak
##uaries
purported
mongolian
encompassing
##garh
fairfield
gettysburg
experimented
##mium
immortals
vowels
##gnon
plata
1953
renovations
pollard
cuthbert
nudged
fortified
##enburg
##rogen
##boats
##sities
vichy
##khov
hornet
pianos
##kshi
nutrients
greenwood
##yala
hushed
##eaux
torpedoes
##tzer
vaughan
303
greensboro
christophe
chieftain
prowess
##rong
reconnaissance
##ioms
savoy
##urgent
sawmill
marred
directional
insulation
dunes
##jing
##jord
dutton
botanical
anatomical
warships
mcpherson
##ador
bologna
brooding
kyushu
successors
corbett
sevilla
sermons
narration
wellington
##waite
enzyme
henson
jayne
##cheng
weightlifting
1963
##nir
##beam
radial
fresco
astor
##chee
kapoor
nixon
irritation
percival
##anies
alumnus
dickson
professions
famed
potsdam
##atz
1975
##fields
stefano
hutchinson
curving
entropy
1944
primate
##erik
legislator
1958
curran
##rney
czechoslovakia
pulmonary
adoptive
apostles
304
overture
spire
katharine
##vard
inflammation
kade
telugu
##estinal
##holz
khalifa
johannes
abolished
illuminated
playhouse
reigned
malayalam
##arns
##rrard
341
alfonso
mackay
cavalier
magistrates
voss
gerhard
toulon
##leton
commandos
glazed
payload
referees
gripping
bernardo
275
excursion
terrestrial
119
alderman
kobayashi
travellers
tuscany
laborers
specialised
estonia
stemming
##onzo
rourke
trustees
rhythmic
adolescents
willoughby
endeavour
##endez
percussion
glaciers
alexandre
intently
admiralty
##lino
venetian
exercised
uruguay
tombs
plantations
prix
landscapes
##llus
kochi
furnished
himalayan
astronomical
relegated
foliage
myanmar
nippon
colonists
schoolhouse
##lston
dioxide
atkins
progresses
saxophone
straining
252
maitland
taxpayers
eleventh
racehorse
charting
danzig
sprang
overgrown
deafening
compulsory
insurgents
suffrage
amounted
outlying
volta
fauna
protagonists
beale
luftwaffe
uniformly
kingdoms
nobleman
informally
walkway
artefacts
woodland
handball
easing
austrian
faerie
arbitration
shrines
favourable
luminous
##itha
synthesis
helium
squealed
automobiles
##ciation
confluence
peat
taut
##wani
hamid
complexes
antoinette
ferrer
locomotive
pursuits
dauphin
plunging
campo
emancipation
##oum
disturbances
truss
specializing
rejoined
yamamoto
219
accredited
bartholomew
boulders
bedrock
##rons
nguyen
vowel
approximation
promenade
rca
cornerback
symbolism
142
occupies
gladstone
hearst
##dice
amadeus
salle
thomson
mandal
##ructured
inquired
##islav
constructing
computational
planetary
oakley
cultivation
##dner
labourers
inhaled
manned
scrapped
deteriorated
##lism
ottoman
basilica
turnbull
slacks
disbanded
##ezer
goldstein
possessing
bouts
realms
##factory
assessments
simulations
##ographic
nme
sighed
guerrero
roderick
299
rescues
##bbon
gilded
alterations
flicking
310
edmonton
endeavors
lds
yielding
mortally
##national
xiv
commuted
##dern
faintly
##tively
spielberg
nervously
umar
##gley
##vyn
##fted
landfall
fantasia
##atus
indexed
nuremberg
watford
rbis
v8
cadence
homogeneous
##tructing
sustainability
sectional
theological
brewers
regulating
pistons
depictions
proponents
##centric
grimace
publicized
choreographer
##lewood
busch
characterization
rebranded
glacial
##odies
presenters
collegiate
##itzer
fisted
cortes
##rred
protege
complementary
guillermo
revue
iain
##drome
dissipated
##saka
motorway
grafton
clasp
valves
surrey
phonetic
bertrand
knelt
originate
tasmania
chrysler
turquoise
##ogenic
cartoonist
wimbledon
moths
kowalski
##baldi
maximilian
bangladeshi
repertoire
clarinet
##lynn
depict
cumberland
impatience
armenia
algiers
erected
##wala
##erved
##imeters
guangzhou
sutherland
1914
feudal
relativity
groaning
giacomo
plymouth
##imov
wentworth
##cliffe
steamer
##ulio
1974
welterweight
lyman
caliph
bony
minas
##corp
##ounded
postmaster
##physics
gardiner
barbados
spheres
cottages
voyages
1977
augustine
susanna
molded
malay
##tadt
##wright
##tama
domenico
dowager
##cave
antwerp
islamabad
geologist
wilkinson
undergone
township
rahman
electrification
gruff
councillors
415
clerical
potomac
georgina
divinity
##ssee
deterioration
207
prologue
melodies
noelle
plume
metaphysical
mongolia
ankara
##tsk
bertram
##jian
dietary
servicemen
vacated
regulates
paternal
estimation
maritime
sonora
friedrich
mundo
harvested
##inia
mongol
aberdeen
parcels
blackened
##uppe
minerals
avalon
hahn
damascus
equator
excavation
arising
propeller
sadler
241
##logic
##slow
temperance
prefecture
resonance
nadu
##lova
##bular
gustave
masonry
clergy
beaufort
cochrane
1952
graeme
314
loosened
slopes
netting
liege
scattering
combines
chopin
warship
pounder
luxembourg
##building
fountains
functioned
ecosystems
rosenthal
##chenko
provence
marek
hurley
stillness
1943
janeiro
magma
abdominal
athenian
cordoba
flutes
##ggio
antennae
memorandum
glendale
1971
mathematician
foyer
midsummer
reassured
##erted
thickness
327
##romatic
cocked
##riation
leith
##gill
demetrius
##nitz
norwich
originating
clockwise
purification
suppliers
harmonica
landowner
alpine
##uder
wheeling
longitude
kimball
supervising
bishops
refit
conducts
australians
destroyers
influenza
supervised
##analysis
manuscripts
anchorage
kaye
guam
sargent
grazed
1945
besieged
##kson
layton
shipyard
commemorating
##tana
airship
gaelic
luciano
opus
##grove
exhibitions
peeked
cebu
ceramics
hume
##wark
##jected
greenberg
##eras
##khan
sculpted
hilltop
clifton
improvisation
croft
ronin
##llins
magnesium
stephenson
reinforced
crewe
compositions
domestically
austrians
fluttering
indus
##lland
maize
##ctuated
craved
bounded
##gut
##vus
357
ensured
##uram
jase
confederation
mediation
enthusiastically
elgin
signalling
nominal
strikers
pereira
messina
##cheon
paraguay
rumbling
huts
##cence
##heater
orchards
ronan
succumbed
administering
narrated
memorials
lockheed
spawning
mauritius
chiba
moffat
fairchild
glittering
shadowed
hanover
slits
viscount
hackney
meiji
expeditions
landscaping
burmese
originates
##cian
lesley
tonnes
316
dynasties
boilers
441
##chase
commemorative
seminole
swimmers
straits
incline
latham
oxide
##lley
fixtures
451
semifinal
aristotle
##quitable
##grants
eduard
landings
spanned
raiding
141
gathers
hurled
spanning
kiel
onslaught
satirical
mayoral
coated
overshadowed
##hner
torino
terminates
tumors
colonization
bellevue
differed
ashland
sobbed
reservoirs
neue
feasibility
churning
tinted
layne
snorted
narrower
xii
emirates
songwriting
facilitating
oder
wwf
liberia
ensuing
rectangular
immigrated
kiara
debuting
bournemouth
nominally
olympian
570
miniseries
##zily
countered
tko
##mology
symphonic
##esian
khz
aback
usl
196
decatur
parentheses
265
690
407
anson
dundee
steppe
fluorescent
exploitation
ponce
zev
interiors
haydn
50th
belize
barrister
comets
1923
##orra
punta
propulsion
hanoi
horned
facilitated
gland
exhibiting
sixteenth
mutations
decreed
1949
greenland
vincenzo
mirza
1948
gillespie
croatian
kilometer
pained
##ovsky
conveyed
hazards
flexed
##bson
sheath
quivering
syndicated
worsened
enoch
florian
galloway
bihar
forsyth
hickory
1973
marshes
winthrop
##vsky
grazing
statutes
pastures
##xon
granville
214
perched
223
##iec
##avio
epsilon
jesuit
augusta
##drich
serviced
panzer
##dson
dunne
masonic
meridian
exclaimed
transmitters
chloride
patrice
##puram
vaults
aerospace
auguste
contrasting
molecule
laboratories
oceanic
interceptor
parchment
granada
defences
adjutant
fumbled
deux
stroked
211
fifties
garment
lithuania
##ares
216
ashby
examinations
engulfed
physiological
finely
arid
corsica
armoured
malaga
lille
prussian
regulator
mergers
##lden
cochin
barnett
##bry
ludwig
##sius
storey
harmonic
magnate
lighted
coiled
##inium
1979
lucknow
philanthropy
abbess
skaters
scranton
convened
illumination
taekwondo
tavi
dobson
algerian
vegetation
##lford
70th
ellington
jogged
aluminium
mcintosh
mccormick
shards
##shaft
tornadoes
cornish
corbin
coldly
warmly
##rdial
austen
dunlop
arias
##yria
bayer
ascot
177
expresses
##udged
yeshiva
josiah
stylistic
43rd
##nington
sofie
wanderers
ceded
##urai
##otted
247
electrons
rhodesia
laos
236
griffiths
racers
neurons
olympia
tucking
renault
vila
goddard
embarked
massimo
##lium
grooves
exhibited
derivation
preached
wilton
greco
317
menon
accommodations
spruce
specialization
canning
navajo
gills
nikolay
eighties
mythological
minerva
marne
mclaren
antibodies
##church
tanzania
hoffmann
peering
waller
402
concentrations
tenderly
maltese
mingled
1919
##ossa
geometric
##orno
supplementary
darkened
currie
endowed
shire
hms
sumatra
norwood
incorporates
##elled
ached
##kovic
eurovision
##vinsky
roared
juarez
tatar
fitch
sealing
cruisers
sustaining
##ensis
disadvantaged
chartered
202
adherents
hostilities
buren
practitioner
babylonian
hadley
signaled
##monium
magdalena
trustee
strolled
tertiary
aromatic
violinist
scandinavia
##aghan
brahms
blanchard
munitions
northumberland
adjunct
brigades
tariff
lifeboat
mobilized
villiers
##lein
patna
germanic
favorably
##nden
wesleyan
##rwin
##esis
keane
retrieval
flanks
erich
##uance
##zic
ranged
collided
barrie
reykjavik
258
naturalist
##skaya
distinguishes
ghostly
balkans
enzymes
triangular
copeland
blackpool
##uria
prelude
reproduced
portrays
transatlantic
maynard
##hope
serie
dunbar
1970s
purcell
coasts
##avs
##dilly
watershed
overtook
##eses
alloy
fergus
theta
brightened
reactivated
precursor
##hausen
ratified
##arians
aquatic
formations
tunis
commissioners
gleaming
canons
doctoral
approximate
buick
rustling
coating
antrim
greenville
clustered
nestor
endemic
rotor
##loid
towering
rann
jordanian
snuggled
defected
spurred
630
galilee
airspace
sevens
frontman
downstream
adherence
montenegro
hobart
saharan
gunslinger
strata
##iques
accolades
174
centred
prohibiting
mughal
aerodynamic
superseded
councils
lobbied
childless
substitutes
foothills
##lization
armenians
fleets
bahn
scenic
runways
wallis
champaign
352
periodical
##lberg
cote
blurted
milano
##mara
##onga
425
insignia
171
1750
establishes
spitfire
seminal
appalachian
mechanically
wry
muttered
epithet
insurgency
glowed
525
encompass
formulation
absorption
slovenia
timbers
emphasizing
homme
jesuits
stakeholders
reprise
proliferation
depicting
impairment
quantitative
searing
summarized
csa
mitochondrial
##tarian
248
nsw
boyer
pioneering
refurbished
algebraic
midfielder
additive
orthogonal
##veda
amore
##mpton
transitioned
buccaneers
exasperated
nouns
relational
murals
coined
simulcast
footed
intersections
antennas
flatly
unionist
clenching
strikeouts
paralympic
musik
##escence
cappella
niger
utilizes
soundtracks
jain
adaptations
facilitates
burnley
privateer
336
galveston
callum
badminton
antibody
caressed
incurred
widowed
jaipur
wicket
dusseldorf
amino
##minster
##etano
physiology
exponential
ives
protectorate
hovered
iqbal
hardness
campground
horst
bogota
huffed
botanist
ensued
1960
middletown
##herton
nrl
##trics
##oxide
herds
favoured
posthumously
regatta
propellers
baptised
321
crossings
manifested
shale
mbe
expanse
cavendish
ignited
hyderabad
whitehall
hawker
reunification
burroughs
intercontinental
closeness
undergoes
00pm
courtship
flattened
glistening
electronically
##buch
astronomer
239
1959
eine
##illon
fixture
ornamental
rhythms
croydon
barrington
agustin
slovakia
archaeologist
395
beamed
stamford
stipulated
volcanoes
skier
glint
henley
##cana
kimberley
whitley
extinguished
moors
motorized
classed
##suka
amphibious
waterford
##ivar
shrub
caracas
alton
mcmillan
ministries
recaptured
kannada
gallantry
javelin
##thermal
pensacola
coupling
carvings
kildare
himalayas
##burgh
drainage
##cek
gazes
explorers
vassal
cypress
##lles
##nius
345
##elles
pandit
cochran
1961
andes
loire
whitaker
kepler
livingstone
gabon
wheeled
##elis
airlift
##emann
excelled
##stadt
spokane
transports
jointly
trumpeter
steamboat
meteorological
sumner
##tonic
crimean
blackwell
apprehension
refueling
churchyard
stemmed
remodeled
fairbanks
joao
##duced
heaving
odessa
italiana
crept
volga
##clave
nestled
climates
237
moldova
chevalier
crouched
197
mahogany
exodus
motown
carpathian
exploited
salamanca
sixties
waistband
acclaim
piazza
comprising
paddington
grasped
355
reclaimed
moines
187
vascular
centrally
##lington
clements
dilapidated
fourteenth
redevelopment
tianjin
jurisdictions
commenced
murmurs
transverse
mclean
deepened
1915
annals
impatiently
1929
barrio
pontiac
expectation
regimental
swelled
wehrmacht
##duk
##istles
##hesion
canterbury
livery
lithuanian
huskies
harcourt
harmonies
biographer
oversees
##auer
duchy
oblique
##marine
##cars
munro
hatfield
bowled
##drik
inhibition
stylized
larvae
385
anthropology
carthage
freshwater
charlton
interred
cinematographer
##ivation
emperors
1918
guerre
levant
barked
##cao
rebelled
criticised
hiram
##kaya
stubble
inspections
##erland
unease
strains
##arney
apprenticeship
hierarchical
baird
tugs
##anian
anthropologist
soils
##nock
##bius
consular
foundry
cupping
hines
zinc
riga
auditory
seventies
##laya
horizontally
marsden
##nberger
nouveau
inverness
allegro
toulouse
quarterfinals
airmen
westbound
##nnis
fredrik
amalgamated
fontaine
mayfair
rhea
##tham
barons
uci
ponds
litre
litres
##orf
electrically
flanagan
179
206
dialects
barnard
albania
521
##yuan
solids
##hosh
##uddin
inversion
turnpike
##mental
##arion
##ouin
explored
namesake
##genesis
accommodated
pointe
bremen
reactors
strewn
unspecified
##ffled
vaudeville
midland
##otho
salisbury
glances
penultimate
embankment
thistle
rediscovered
gothenburg
146
##gonal
westward
blackish
assemblies
251
221
computed
raked
##hampton
227
178
commended
##ilised
knotted
reconstructed
precipitation
denotes
##lovic
##ntine
505
##lassified
americana
##dorff
inorganic
comprises
horsepower
229
vernacular
materialized
balfour
1610
bluegrass
chuckled
foreword
sharpened
massey
mavericks
raged
modernized
##phonic
posthumous
miscellaneous
##farlane
mechanized
gospels
eritrea
332
denominations
exeter
latvian
tubular
glands
persians
aristocracy
etymology
161
163
unicef
##ghton
bassist
francesco
lattice
490
erasmus
abstracts
##gingly
ngos
ghanaian
constituencies
miniatures
tolkien
leasing
analogous
contrasts
hardcover
249
ndp
reiterated
erosion
##ennial
towing
metis
##pore
substrate
243
erupted
competes
2000s
concurrency
elliptical
inlet
analytic
symmetric
antioch
##urrent
nonfiction
excitedly
aisles
dhaka
bibliography
stabilization
augmented
torque
berkshire
vivo
likened
sunderland
273
untitled
distinguishing
moaned
musee
##osity
390
1777
anterior
##rcle
anglican
breton
cairns
expressway
hutton
engraving
custer
armistice
eaton
peruvian
##thorpe
forearms
1926
pagoda
metre
subsidiary
mounds
langdon
##bourg
gazed
##pkins
ordination
saskatchewan
patted
guerrillas
expressive
growls
stagecoach
1967
191
syed
slung
beit
delicately
jiangsu
claudius
100th
groaned
1921
hampstead
dickinson
expulsion
supervisory
1800s
##merie
1962
nueva
maori
cantor
monarchs
pradesh
erwin
erroneously
##sily
gora
loyola
hurriedly
inhibitor
municipalities
helens
theodor
cumbria
madeira
bolshevik
theologian
maison
protruding
##phate
oxidation
marlborough
indochina
ferries
trois
hesse
inched
eighteenth
bordering
##ajan
##tland
blushed
calvert
##dington
ballads
cpc
reelected
peabody
411
suez
wiggled
1930
archdeacon
##physical
kaitlyn
suriname
fission
##ehan
##ccus
midlands
164
humanist
rousseau
rainer
vamps
woodlands
1935
shuffled
scotia
##krishna
geraldine
brigham
basal
eton
cavaliers
weathered
swindon
gutierrez
heidelberg
italia
gunners
assam
sorbonne
geological
liturgy
metabolic
##dermott
pendleton
pune
##ulton
##zow
hirsch
amplitude
minsk
agrarian
sussex
##aia
houghton
inscriptions
frescoes
petitioned
42nd
constantin
sparsely
##ikh
telangana
doctrines
bolivar
fife
dartmouth
tracts
neighbouring
shreveport
lesions
coefficient
##usia
abnormalities
centimetres
furnishings
gearbox
fairs
ashford
1934
transylvania
##shah
kazan
##ywood
guerra
217
thayer
shafts
##bial
berwick
genus
monasteries
213
##cona
reefs
##ignon
pathogen
compartments
##olio
mesopotamia
villas
oboe
almeida
##ingen
339
343
researches
skeletal
fungal
papal
radcliffe
goethe
cognition
streetcar
expeditionary
reddish
##rnik
plaintiffs
nomadic
winfield
176
francoise
##mum
hamish
bared
xiii
uzbekistan
412
##titled
trams
mumbled
##deh
##wicz
headlined
westfield
cantata
1946
garnered
newmarket
dissolution
fastened
hereford
nationalities
clergyman
1947
tugging
southwestern
impetus
reared
bsc
undertaken
40th
electrode
fabrics
munoz
295
1938
isotope
cowan
napoleonic
clung
mozambique
amassed
denote
kensington
arched
##dara
constantinople
contemporaries
1916
amelie
bernhard
forster
puget
050
305
catalonia
argyle
irrigation
##nagar
firth
gregorian
itv
bavaria
droplets
confederates
serials
##mament
northeastern
intervening
elongated
##ropolis
craters
slovenian
1954
crumpled
macedonian
slabs
telescopes
mandolin
##neuve
putnam
eucalyptus
clawed
adriatic
tumbled
scholastic
ferrara
krakow
amplifiers
tiled
##ometric
snooker
macmillan
gottfried
syndication
integers
southward
drury
constituted
intersects
juliana
mountainous
fifteenth
tchaikovsky
##iology
cheltenham
linguist
gymnasium
frequented
978
cervical
receptor
ridges
encompasses
galway
prentice
exemplified
yawned
waterways
angled
commencement
andersen
##tsky
intensified
##ooping
dimly
relinquished
##idad
parma
inhibitors
1964
aragon
bombardment
albion
##rington
whereupon
exchequer
1955
charlemagne
1928
189
blankly
connolly
##kato
306
reprinted
277
corresponded
pantheon
participates
##carbon
unfolded
cambodian
surveying
shifter
1932
1690
##orth
294
hotspur
genealogy
equestrian
tractors
unmistakable
juveniles
distillery
sipped
pondered
fourier
comte
sprawling
macedonia
##scent
maharashtra
albanians
pulsing
flowering
amherst
culminating
##ocene
assessed
twentieth
##ologies
gibraltar
wounding
peshawar
principally
observes
senegal
composers
pursuant
vocalists
##ticus
##rith
roadway
flinched
raceway
wrexham
zambia
federer
proficiency
##rrick
burlington
seneca
masjid
showcased
cringed
emitted
rotherham
richly
ionic
interned
unpublished
annexation
metacritic
analytical
differentiated
verve
successive
acidic
unitary
militias
afb
wichita
khyber
newscasts
concordia
422
norte
refining
ions
sichuan
malvern
eroded
##enstein
lehman
ascending
staffed
##erative
parochial
electrified
denomination
premiership
soared
aggregation
reused
identifiable
settler
muscled
speedway
ensembles
2020
institutes
structurally
carbonate
compilations
combatants
matrices
canadiens
ottomans
chromosome
wta
friars
reductions
illustrating
afrikaans
semiconductor
##rnier
1792
279
dso
indices
259
clamped
297
hodgson
spines
nehru
kazakhstan
lodges
218
strode
##lwyn
##ayton
##idium
fielded
##jiang
banco
##otype
battleships
nawab
textile
##gpur
periphery
##nham
overland
keynes
descends
1913
softness
denoted
fuselage
ignatius
ornate
##orough
##tania
humboldt
##ncia
henan
kuala
lucan
bodo
##lastic
##eley
microscopic
conscription
racecourse
1893
soloist
regiments
phosphorus
modulation
ipswich
congregations
matthias
guangdong
75th
havre
preparatory
##mberg
reciprocal
johnstone
collingwood
adjoining
bacterium
guzman
regents
harpsichord
asturias
coventry
##tlan
atrium
antigua
gestured
1911
1990s
karnataka
acheron
annapolis
archdiocese
yellowish
expenditure
nilsson
covent
benedictine
2018
gaulle
directorate
winkler
##bner
lurched
biennial
weakly
nineteenth
crested
ferns
vertebrae
lakeside
subcommittee
seventeenth
bequeathed
1980s
christchurch
ecology
ventral
57th
expenditures
verdi
oaxaca
nanjing
stirling
eurasian
grasses
formulated
aristocratic
fulham
welded
instituted
pastoral
basins
clapton
consecration
gliding
##adan
173
246
britten
medici
reformation
peterborough
rearview
howled
1880
turbine
princely
185
enveloped
##laise
transmissions
ceylon
swirled
1922
piloted
mukherjee
rovers
inuit
leaped
saxony
##tung
juventus
stuttgart
seminars
sainte
campos
307
406
deutschland
archeological
clasped
nantes
corrosion
##phus
zenith
ultraviolet
consonants
artworks
limestone
1861
robson
squadrons
habsburg
##zbek
stimulated
balthazar
armament
##ographer
decommissioned
208
162
nmi
rotary
derry
rotational
thessaloniki
chancel
emory
locality
wetlands
twelfth
huntsville
marcelo
##yeh
mated
hummed
ecole
##urbed
patterned
groves
veracruz
inexpensive
322
statehood
mellon
1863
tufts
1783
jurist
##ngen
furrowed
paler
nepali
faltered
1912
eruptions
##umatic
marquess
##venor
topography
cessna
acacia
meritorious
kassel
laval
collarbone
##rrado
estonian
fluctuations
sociologist
brno
alsace
instrumentation
##ytic
martinique
northward
viaduct
##wehr
##raphy
turrets
johnston
hertfordshire
tiberius
1904
musica
sired
manifold
lublin
principality
tudor
1780
41st
34th
stimuli
1956
sugarcane
crystalline
quakers
gonzales
arranger
flemish
siberian
clenched
prussia
##arina
constructions
subsided
1720
ascended
##onus
hungarians
sudbury
delle
schubert
gujarat
##acio
seine
ghent
charted
##miento
1859
##chison
archaeologists
rajasthan
##ungen
boer
learners
consecrated
##isch
kathmandu
diocese
hodges
brunei
1978
spores
subsidiaries
osborn
mollusk
forerunner
newell
chalmers
requiem
##endra
aleksandr
mathematicians
##tula
verandah
pembroke
radiating
consultancy
cheshire
chimed
##schen
##kovsky
creeks
670
clashed
andover
abolitionist
culminated
209
earls
32nd
##poulos
fjord
montpellier
##caster
331
eastenders
andhra
monterrey
martins
limerick
commissioning
leger
##vitt
scoffed
cerro
tunisian
edict
60th
188
grenada
##cote
andersson
omnibus
modernism
seamen
##ghan
##utive
plaques
##ecin
dwellings
appellate
labrador
##nary
emeritus
mediated
reclamation
servicing
##tracted
argus
282
##eborg
accompaniment
occupations
amazement
treatise
sneered
laszlo
commemoration
predominant
loomed
whaling
underside
263
1910
accumulation
northampton
southeastern
chaired
##tique
choirs
shortlisted
amalgamation
184
bce
trafford
##enary
haute
reeve
obsidian
collaborations
radiated
328
hissed
lough
bloomington
##enbach
gmbh
158
hillsborough
trier
wembley
semifinals
pba
modernist
schumann
##irus
shuddering
reintroduced
eastward
mused
tonga
reorganized
##bahn
##peration
ebert
##tology
overseen
351
guyana
botanic
showcases
propelled
seater
pomeranian
synthesizer
bismarck
##riders
caledonia
mclaughlin
##4th
pointedly
bohemia
clermont
pictorial
undrafted
enactment
sentai
indira
dissemination
excavated
kyiv
columbian
espana
goaltender
somerville
reworked
kurdistan
worcestershire
plurality
diversified
49ers
unitarian
cameroon
designations
assent
268
baden
invariant
337
##oese
470
bordered
1710
1638
234
siegel
taunton
waterway
tobago
expands
fledgling
rectory
shandong
##onda
convoys
smirked
baritone
dorchester
stephane
bavarian
stockport
stucco
furlongs
departmental
parapet
excavations
eastbound
zhejiang
synthesized
rouen
maclean
1620
arboretum
1864
##achal
byzantine
##dna
##dalen
syriac
228
townships
anzac
jozef
antigen
226
##rmed
grumbled
274
1927
##osomal
thence
gujarati
cretaceous
##9th
disused
269
guadalajara
bhutan
differentiation
##zione
thrusting
darting
1930s
singleton
domes
munster
yunnan
papacy
##igny
1925
growled
##tituted
1869
battalions
conductors
##raction
baronet
ecumenical
apostolic
##skie
brandenburg
hawthorn
farmland
sprinted
invertebrates
sediment
wien
unopposed
##unas
reorganization
##pura
52nd
278
gershwin
sardinia
equatorial
maharaja
bahadur
sprawled
##wice
##swick
51st
##lten
1868
##kney
saxon
craftsmen
1957
flicked
##liche
##furt
267
liszt
198
1898
1960s
appleton
railways
puebla
nicholls
engravings
vaulted
provost
worcester
khmer
trembled
1887
fukuoka
archduke
fisheries
reapers
orchestras
rumbled
344
temperate
protestants
uninhabited
##ellant
##kovich
##lkirk
kilometre
zoology
##onale
alloys
##nivorous
arrondissement
falkland
1652
##horpe
undertook
ordnance
spectra
horticultural
saxons
329
292
leyte
medial
##iform
morley
climatic
boomed
jacobite
filippo
276
brest
snarled
1831
grinned
annexed
caspian
tbilisi
##dham
napier
stilled
berber
##idae
vickers
manitoba
ciudad
greyish
wessex
azores
causeway
glancing
bahia
havilland
##avian
anthropological
polytechnic
palazzo
piston
receptors
portico
1933
knighted
hellenic
1940s
287
##izan
chatham
##zyn
flourished
49th
1866
eastman
polynomial
yugoslav
1789
archway
##khand
sigismund
tributary
aground
erskine
segunda
atoll
sculptors
##eurs
##omorphic
perpendicular
sloping
##aldo
flotilla
sloop
##vao
301
neolithic
319
salford
shrubs
##kala
pyrenees
##hedron
231
grupo
gunnery
wight
liquidation
newfoundland
exports
tyrol
derives
carleton
encircled
outstretched
moritz
aerodrome
landau
darlington
##inae
emigrated
1901
captives
shrieked
1917
southland
wylie
sousa
1862
##lysis
prelate
disciplines
38th
soloists
1815
organist
casimir
bonaparte
lumpur
operatic
sulfate
flickered
plumage
neumann
1839
253
262
spectral
newbury
shuddered
cardiovascular
##metry
fishery
strasbourg
glared
grimsby
burials
fluttered
mbc
1786
reorganisation
artisans
##wyl
238
##copic
1801
hammersmith
densely
1865
1820
peacekeeping
mustered
mcintyre
1723
subspecies
1920s
saskatoon
magdalene
lowland
##asian
philology
reforming
airfields
foraging
44th
kunst
archipelago
1894
##zko
##ibar
padua
[...]
